{
  "version": "1.0",
  "truncation": null,
  "padding": null,
  "added_tokens": [],
  "normalizer": null,
  "pre_tokenizer": {
    "type": "ByteLevel",
    "add_prefix_space": true,
    "trim_offsets": true,
    "use_regex": true
  },
  "post_processor": null,
  "decoder": {
    "type": "ByteLevel",
    "add_prefix_space": true,
    "trim_offsets": true,
    "use_regex": true
  },
  "model": {
    "type": "BPE",
    "dropout": null,
    "unk_token": null,
    "continuing_subword_prefix": null,
    "end_of_word_suffix": null,
    "fuse_unk": false,
    "byte_fallback": false,
    "vocab": {
      "!": 0,
      "\"": 1,
      "#": 2,
      "$": 3,
      "%": 4,
      "&": 5,
      "'": 6,
      "(": 7,
      ")": 8,
      "*": 9,
      "+": 10,
      ",": 11,
      "-": 12,
      ".": 13,
      "/": 14,
      "0": 15,
      "1": 16,
      "2": 17,
      "3": 18,
      "4": 19,
      "5": 20,
      "6": 21,
      "7": 22,
      "8": 23,
      "9": 24,
      ":": 25,
      ";": 26,
      "<": 27,
      "=": 28,
      ">": 29,
      "?": 30,
      "@": 31,
      "A": 32,
      "B": 33,
      "C": 34,
      "D": 35,
      "E": 36,
      "F": 37,
      "G": 38,
      "H": 39,
      "I": 40,
      "J": 41,
      "K": 42,
      "L": 43,
      "M": 44,
      "N": 45,
      "O": 46,
      "P": 47,
      "Q": 48,
      "R": 49,
      "S": 50,
      "T": 51,
      "U": 52,
      "V": 53,
      "W": 54,
      "X": 55,
      "Y": 56,
      "Z": 57,
      "[": 58,
      "\\": 59,
      "]": 60,
      "^": 61,
      "_": 62,
      "`": 63,
      "a": 64,
      "b": 65,
      "c": 66,
      "d": 67,
      "e": 68,
      "f": 69,
      "g": 70,
      "h": 71,
      "i": 72,
      "j": 73,
      "k": 74,
      "l": 75,
      "m": 76,
      "n": 77,
      "o": 78,
      "p": 79,
      "q": 80,
      "r": 81,
      "s": 82,
      "t": 83,
      "u": 84,
      "v": 85,
      "w": 86,
      "x": 87,
      "y": 88,
      "z": 89,
      "{": 90,
      "|": 91,
      "}": 92,
      "~": 93,
      "¡": 94,
      "¢": 95,
      "£": 96,
      "¤": 97,
      "¥": 98,
      "¦": 99,
      "§": 100,
      "¨": 101,
      "©": 102,
      "ª": 103,
      "«": 104,
      "¬": 105,
      "®": 106,
      "¯": 107,
      "°": 108,
      "±": 109,
      "²": 110,
      "³": 111,
      "´": 112,
      "µ": 113,
      "¶": 114,
      "·": 115,
      "¸": 116,
      "¹": 117,
      "º": 118,
      "»": 119,
      "¼": 120,
      "½": 121,
      "¾": 122,
      "¿": 123,
      "À": 124,
      "Á": 125,
      "Â": 126,
      "Ã": 127,
      "Ä": 128,
      "Å": 129,
      "Æ": 130,
      "Ç": 131,
      "È": 132,
      "É": 133,
      "Ê": 134,
      "Ë": 135,
      "Ì": 136,
      "Í": 137,
      "Î": 138,
      "Ï": 139,
      "Ð": 140,
      "Ñ": 141,
      "Ò": 142,
      "Ó": 143,
      "Ô": 144,
      "Õ": 145,
      "Ö": 146,
      "×": 147,
      "Ø": 148,
      "Ù": 149,
      "Ú": 150,
      "Û": 151,
      "Ü": 152,
      "Ý": 153,
      "Þ": 154,
      "ß": 155,
      "à": 156,
      "á": 157,
      "â": 158,
      "ã": 159,
      "ä": 160,
      "å": 161,
      "æ": 162,
      "ç": 163,
      "è": 164,
      "é": 165,
      "ê": 166,
      "ë": 167,
      "ì": 168,
      "í": 169,
      "î": 170,
      "ï": 171,
      "ð": 172,
      "ñ": 173,
      "ò": 174,
      "ó": 175,
      "ô": 176,
      "õ": 177,
      "ö": 178,
      "÷": 179,
      "ø": 180,
      "ù": 181,
      "ú": 182,
      "û": 183,
      "ü": 184,
      "ý": 185,
      "þ": 186,
      "ÿ": 187,
      "Ā": 188,
      "ā": 189,
      "Ă": 190,
      "ă": 191,
      "Ą": 192,
      "ą": 193,
      "Ć": 194,
      "ć": 195,
      "Ĉ": 196,
      "ĉ": 197,
      "Ċ": 198,
      "ċ": 199,
      "Č": 200,
      "č": 201,
      "Ď": 202,
      "ď": 203,
      "Đ": 204,
      "đ": 205,
      "Ē": 206,
      "ē": 207,
      "Ĕ": 208,
      "ĕ": 209,
      "Ė": 210,
      "ė": 211,
      "Ę": 212,
      "ę": 213,
      "Ě": 214,
      "ě": 215,
      "Ĝ": 216,
      "ĝ": 217,
      "Ğ": 218,
      "ğ": 219,
      "Ġ": 220,
      "ġ": 221,
      "Ģ": 222,
      "ģ": 223,
      "Ĥ": 224,
      "ĥ": 225,
      "Ħ": 226,
      "ħ": 227,
      "Ĩ": 228,
      "ĩ": 229,
      "Ī": 230,
      "ī": 231,
      "Ĭ": 232,
      "ĭ": 233,
      "Į": 234,
      "į": 235,
      "İ": 236,
      "ı": 237,
      "Ĳ": 238,
      "ĳ": 239,
      "Ĵ": 240,
      "ĵ": 241,
      "Ķ": 242,
      "ķ": 243,
      "ĸ": 244,
      "Ĺ": 245,
      "ĺ": 246,
      "Ļ": 247,
      "ļ": 248,
      "Ľ": 249,
      "ľ": 250,
      "Ŀ": 251,
      "ŀ": 252,
      "Ł": 253,
      "ł": 254,
      "Ń": 255,
      "Ġt": 256,
      "in": 257,
      "Ġa": 258,
      "er": 259,
      "on": 260,
      "Ġth": 261,
      "it": 262,
      "at": 263,
      "čĊ": 264,
      "re": 265,
      "ve": 266,
      "Ġs": 267,
      "an": 268,
      "..": 269,
      "Ġw": 270,
      "le": 271,
      "or": 272,
      "al": 273,
      "ou": 274,
      "Ġb": 275,
      "ing": 276,
      "me": 277,
      "Ġf": 278,
      "ive": 279,
      "Ġthe": 280,
      "is": 281,
      "nd": 282,
      "Ġp": 283,
      "Ġc": 284,
      "Ne": 285,
      "Ġh": 286,
      "st": 287,
      "ut": 288,
      "Ġg": 289,
      "Ġm": 290,
      "ed": 291,
      "ar": 292,
      "ĠI": 293,
      "Ġto": 294,
      "Ġd": 295,
      "ay": 296,
      "os": 297,
      "Ġ1": 298,
      "Ġo": 299,
      "om": 300,
      "en": 301,
      "oo": 302,
      "Ġl": 303,
      "ic": 304,
      "ow": 305,
      "as": 306,
      "es": 307,
      "ot": 308,
      "Ġand": 309,
      "Ġn": 310,
      "ll": 311,
      "ative": 312,
      "gative": 313,
      "Negative": 314,
      "ad": 315,
      "Ġy": 316,
      "ly": 317,
      "Ġin": 318,
      "osit": 319,
      "Ġ@": 320,
      "ositive": 321,
      "Positive": 322,
      "Ġof": 323,
      ",\"": 324,
      "ac": 325,
      "ver": 326,
      "ral": 327,
      "ld": 328,
      "utral": 329,
      "Neutral": 330,
      "ch": 331,
      "ant": 332,
      "lay": 333,
      "Ġbe": 334,
      "Ġis": 335,
      "ion": 336,
      "ĠT": 337,
      "Ġe": 338,
      "Ġon": 339,
      "Ġfor": 340,
      "Ġ2": 341,
      "Ġyou": 342,
      "Ġit": 343,
      "ame": 344,
      "âĢ": 345,
      "id": 346,
      "Ġre": 347,
      "ĠS": 348,
      "un": 349,
      "Ġ/": 350,
      "ft": 351,
      "ĠA": 352,
      "et": 353,
      "rre": 354,
      "ĠC": 355,
      "...": 356,
      "ome": 357,
      "vant": 358,
      "he": 359,
      "levant": 360,
      "Irre": 361,
      "Irrelevant": 362,
      "and": 363,
      "Ġst": 364,
      "Ġwh": 365,
      "!!": 366,
      "th": 367,
      "am": 368,
      "),": 369,
      "ĠP": 370,
      "ge": 371,
      "ĠB": 372,
      "Ġ3": 373,
      "us": 374,
      "ĠW": 375,
      "op": 376,
      "Ġthis": 377,
      "ĠR": 378,
      "ke": 379,
      "ĠG": 380,
      "ns": 381,
      "ĠF": 382,
      "ĠM": 383,
      "Ġmy": 384,
      "Of": 385,
      "ĠD": 386,
      "one": 387,
      "all": 388,
      "....": 389,
      "ig": 390,
      "Ġthat": 391,
      "ith": 392,
      "ec": 393,
      "Ġgame": 394,
      "ter": 395,
      "Le": 396,
      "out": 397,
      "com": 398,
      "nds": 399,
      "Ġ.": 400,
      "ie": 401,
      "Ġme": 402,
      "âĢĻ": 403,
      "zon": 404,
      "Ġha": 405,
      "Ġi": 406,
      "Ġ4": 407,
      "Ġwith": 408,
      "eri": 409,
      "Ġ5": 410,
      "ra": 411,
      "up": 412,
      "ck": 413,
      "ill": 414,
      "ust": 415,
      "Ġplay": 416,
      "ear": 417,
      "ook": 418,
      "nt": 419,
      "ee": 420,
      "Ġ10": 421,
      "oh": 422,
      "ss": 423,
      "ack": 424,
      "ro": 425,
      "ain": 426,
      "Ġj": 427,
      "ĠH": 428,
      "ma": 429,
      "Ġan": 430,
      "ohns": 431,
      "ost": 432,
      "ohnson": 433,
      "Ġsh": 434,
      "Ġ7": 435,
      "Ġ6": 436,
      "Ġso": 437,
      "ally": 438,
      "ort": 439,
      "ir": 440,
      "tle": 441,
      "Ġ8": 442,
      "Ġ9": 443,
      "'s": 444,
      "Ġne": 445,
      "atch": 446,
      ".\"": 447,
      "anc": 448,
      "Ġ11": 449,
      "ue": 450,
      "Ġr": 451,
      "20": 452,
      "Ġhave": 453,
      "ys": 454,
      "mp": 455,
      "ite": 456,
      "ag": 457,
      "attle": 458,
      "uty": 459,
      "der": 460,
      "ation": 461,
      "ep": 462,
      "wit": 463,
      "ere": 464,
      "ĠO": 465,
      "Ġnot": 466,
      "ore": 467,
      "Ġli": 468,
      "ht": 469,
      "ĠN": 470,
      "ia": 471,
      "gends": 472,
      "ace": 473,
      "'t": 474,
      "ĠE": 475,
      "ers": 476,
      "unk": 477,
      "Ġare": 478,
      "bo": 479,
      "el": 480,
      "tion": 481,
      "uck": 482,
      "Ġdo": 483,
      "vid": 484,
      "Ġfr": 485,
      "Legends": 486,
      "Ġbut": 487,
      "Play": 488,
      "ate": 489,
      "Ġjust": 490,
      "oft": 491,
      "Ġwas": 492,
      "Ġcom": 493,
      "ead": 494,
      "pp": 495,
      "ur": 496,
      ",@": 497,
      "Duty": 498,
      "ass": 499,
      "Ġat": 500,
      "Ġ-": 501,
      "Call": 502,
      "il": 503,
      "\"\"": 504,
      "pe": 505,
      "Ġk": 506,
      "ĠL": 507,
      "Ġget": 508,
      "Ġall": 509,
      "Ġcan": 510,
      "ros": 511,
      "The": 512,
      "ix": 513,
      "very": 514,
      "Cl": 515,
      "book": 516,
      "rou": 517,
      "Ġlo": 518,
      "Red": 519,
      "Battle": 520,
      "acebook": 521,
      "ight": 522,
      "box": 523,
      "gle": 524,
      "ĠJ": 525,
      "Tom": 526,
      "ul": 527,
      "OfDuty": 528,
      "CallOfDuty": 529,
      "Ġout": 530,
      "ancys": 531,
      "Clancys": 532,
      "TomClancys": 533,
      "Ġwor": 534,
      "ime": 535,
      "johnson": 536,
      "ble": 537,
      "order": 538,
      "den": 539,
      "sC": 540,
      "Ġwe": 541,
      "Ġpic": 542,
      "ber": 543,
      "Ġsome": 544,
      "Ġup": 545,
      "now": 546,
      "ard": 547,
      "Ġlike": 548,
      "Ġ12": 549,
      "oogle": 550,
      "ak": 551,
      "icros": 552,
      "mazon": 553,
      "77": 554,
      "ent": 555,
      "icrosoft": 556,
      "TA": 557,
      "ps": 558,
      "ands": 559,
      "ood": 560,
      "Ġgo": 561,
      "Ġle": 562,
      "Ġal": 563,
      "our": 564,
      "Ġab": 565,
      "ould": 566,
      "Xbox": 567,
      "ĠV": 568,
      "witter": 569,
      "Ġv": 570,
      "ol": 571,
      "watch": 572,
      "Ġ20": 573,
      "adden": 574,
      "Ġcon": 575,
      "Ġex": 576,
      "??": 577,
      "Ġfrom": 578,
      "ast": 579,
      "Ġas": 580,
      "erizon": 581,
      "ank": 582,
      "Ġyour": 583,
      "FL": 584,
      "Ġac": 585,
      "ield": 586,
      "ĠTh": 587,
      "lands": 588,
      "ague": 589,
      "se": 590,
      "verwatch": 591,
      "econ": 592,
      "BA": 593,
      "art": 594,
      "ub": 595,
      "ce": 596,
      "orderlands": 597,
      "Ġch": 598,
      "emp": 599,
      "ĠY": 600,
      "Ġtr": 601,
      "field": 602,
      "!!!!": 603,
      "Madden": 604,
      "........": 605,
      "NFL": 606,
      "tt": 607,
      "bow": 608,
      "epot": 609,
      "nite": 610,
      "MaddenNFL": 611,
      "raft": 612,
      "ainbow": 613,
      "St": 614,
      "eries": 615,
      "if": 616,
      "IF": 617,
      "stone": 618,
      "lack": 619,
      "ĠThe": 620,
      "Ġhas": 621,
      "âĢ¦": 622,
      "host": 623,
      "old": 624,
      "UB": 625,
      "vidia": 626,
      "pex": 627,
      "twitter": 628,
      "emption": 629,
      "thstone": 630,
      "are": 631,
      "reed": 632,
      "IFA": 633,
      "earthstone": 634,
      "use": 635,
      "ĠU": 636,
      "00": 637,
      "UBG": 638,
      "ell": 639,
      "ist": 640,
      "ine": 641,
      "Ġthey": 642,
      "League": 643,
      "Ġabout": 644,
      "ĠĠ": 645,
      "im": 646,
      "assin": 647,
      "Ġtime": 648,
      "Ġnow": 649,
      "Th": 650,
      "Ġnew": 651,
      "Recon": 652,
      "hostRecon": 653,
      "NBA": 654,
      "Ġfuck": 655,
      "ess": 656,
      "ota": 657,
      "'m": 658,
      "GO": 659,
      "ssassin": 660,
      "Ġpro": 661,
      "ice": 662,
      "orld": 663,
      "Rainbow": 664,
      "OO": 665,
      "yber": 666,
      "Apex": 667,
      "ake": 668,
      "Ġor": 669,
      "reat": 670,
      "punk": 671,
      "tu": 672,
      "ase": 673,
      "yberpunk": 674,
      "ortnite": 675,
      "Ġ&": 676,
      "Ġwill": 677,
      "est": 678,
      "Ġgood": 679,
      "rand": 680,
      "Ġlove": 681,
      "co": 682,
      "Ġevery": 683,
      "Microsoft": 684,
      "Ġsee": 685,
      "GhostRecon": 686,
      "day": 687,
      "Ġreally": 688,
      "Verizon": 689,
      "port": 690,
      "ting": 691,
      "PS": 692,
      "Ġ(": 693,
      "ind": 694,
      "Ġde": 695,
      "ople": 696,
      "eople": 697,
      "Ġag": 698,
      "EA": 699,
      "Ġone": 700,
      "Station": 701,
      "uch": 702,
      "Ġwhen": 703,
      "CS": 704,
      "ven": 705,
      "Ġby": 706,
      "Ġus": 707,
      "Ġ_": 708,
      "Ġmore": 709,
      "ment": 710,
      "Hearthstone": 711,
      "ĠIt": 712,
      "um": 713,
      "Ġshit": 714,
      "ong": 715,
      "War": 716,
      "Ġany": 717,
      "OfLegends": 718,
      "LeagueOfLegends": 719,
      "PUBG": 720,
      "Depot": 721,
      "Facebook": 722,
      "omeDepot": 723,
      "Ġ\"\"": 724,
      "Overwatch": 725,
      "FIFA": 726,
      "Amazon": 727,
      "Fortnite": 728,
      "Borderlands": 729,
      "Battlefield": 730,
      "oth": 731,
      "Google": 732,
      "Cyberpunk": 733,
      "Ġhe": 734,
      "ile": 735,
      "Ġlook": 736,
      "Ġpeople": 737,
      "ause": 738,
      "Nvidia": 739,
      "Ġdon": 740,
      "Ġbu": 741,
      "uto": 742,
      "HomeDepot": 743,
      "Un": 744,
      "World": 745,
      "od": 746,
      "Dota": 747,
      "Ġwho": 748,
      "ri": 749,
      "RD": 750,
      "ays": 751,
      "Black": 752,
      "grou": 753,
      "Ġcomp": 754,
      "ity": 755,
      "PlayStation": 756,
      "Ġno": 757,
      "Six": 758,
      "Ġgot": 759,
      "ĠâĢĻ": 760,
      "RainbowSix": 761,
      "Ġbeen": 762,
      "TomClancysRainbowSix": 763,
      "lo": 764,
      "sCold": 765,
      "sColdWar": 766,
      "Craft": 767,
      "opsColdWar": 768,
      "CallOfDutyBlack": 769,
      "ApexLegends": 770,
      "CallOfDutyBlackopsColdWar": 771,
      "GTA": 772,
      "Ġif": 773,
      "OfCraft": 774,
      "WorldOfCraft": 775,
      "Ġwhat": 776,
      "ab": 777,
      "lease": 778,
      "Xs": 779,
      "Ġhtt": 780,
      ",\"@": 781,
      "TomClancysGhostRecon": 782,
      "oooo": 783,
      "Assassin": 784,
      "Ġte": 785,
      "2077": 786,
      "Grand": 787,
      "so": 788,
      "Ġun": 789,
      "Xseries": 790,
      "Ġbec": 791,
      "grounds": 792,
      "ink": 793,
      "know": 794,
      "Ġhow": 795,
      "Ġwork": 796,
      "Ġhttps": 797,
      "Auto": 798,
      "ftAuto": 799,
      "TheftAuto": 800,
      "GrandTheftAuto": 801,
      "Dead": 802,
      "Player": 803,
      "qu": 804,
      "Unknow": 805,
      "Battlegrounds": 806,
      "nsBattlegrounds": 807,
      "PlayerUnknow": 808,
      "PlayerUnknownsBattlegrounds": 809,
      "RDR": 810,
      "ire": 811,
      "Redemption": 812,
      "RedDead": 813,
      "RedDeadRedemption": 814,
      "ĠRed": 815,
      "sCreed": 816,
      "AssassinsCreed": 817,
      "Ġen": 818,
      "ect": 819,
      "ream": 820,
      "gh": 821,
      "Ġstill": 822,
      "ler": 823,
      "30": 824,
      "Ġgu": 825,
      "ff": 826,
      "ĠJohnson": 827,
      "31": 828,
      "ĠĠčĊ": 829,
      "Ġyear": 830,
      "ous": 831,
      "thing": 832,
      "oin": 833,
      "witch": 834,
      "ip": 835,
      "ne": 836,
      "Ġam": 837,
      "Ġman": 838,
      "hand": 839,
      "Ġthem": 840,
      "ure": 841,
      "IN": 842,
      "Ġknow": 843,
      "Ġagain": 844,
      "Game": 845,
      "Ġeven": 846,
      "Ġgames": 847,
      "handler": 848,
      "ick": 849,
      "handlerR": 850,
      "ving": 851,
      "ying": 852,
      "Ġback": 853,
      "to": 854,
      "Ġu": 855,
      "Ġwant": 856,
      "Ġover": 857,
      "Ġcl": 858,
      "Ġbecause": 859,
      "ts": 860,
      "be": 861,
      "Ġacc": 862,
      "ĠWh": 863,
      "ap": 864,
      "Ġplaying": 865,
      "own": 866,
      "ĠSt": 867,
      "19": 868,
      "ĠâĢ": 869,
      "Ġoff": 870,
      "fter": 871,
      "80": 872,
      "ies": 873,
      "Ġthere": 874,
      "Ġbest": 875,
      "Ġfun": 876,
      "Ġpre": 877,
      "Ġ:": 878,
      "Ġwould": 879,
      "10": 880,
      "Ġhad": 881,
      "ĠK": 882,
      "Ġsc": 883,
      "ĠRhandlerR": 884,
      "Ġtheir": 885,
      "ry": 886,
      "Ġse": 887,
      "!.": 888,
      "Ġsa": 889,
      "ĠWar": 890,
      "irst": 891,
      "ud": 892,
      "em": 893,
      "ning": 894,
      "99": 895,
      "iss": 896,
      "Ġmuch": 897,
      "Ġdid": 898,
      "Ġgreat": 899,
      "................": 900,
      "ER": 901,
      "ait": 902,
      "tv": 903,
      "Ġser": 904,
      "Ġfucking": 905,
      "Ġad": 906,
      "65": 907,
      "ĠTH": 908,
      "This": 909,
      "Ġdis": 910,
      "60": 911,
      "age": 912,
      "ide": 913,
      "Ġban": 914,
      "ial": 915,
      "upport": 916,
      "Ġonly": 917,
      "able": 918,
      "Ġgoing": 919,
      "Ġour": 920,
      "//": 921,
      "44": 922,
      "elp": 923,
      "12": 924,
      "ish": 925,
      "iz": 926,
      "vide": 927,
      "://": 928,
      "Ġpl": 929,
      "Ġwhy": 930,
      "Ġpr": 931,
      "ount": 932,
      "15": 933,
      "ws": 934,
      "Ġexc": 935,
      "Ġsp": 936,
      "ĠXbox": 937,
      "35": 938,
      "Ġmake": 939,
      "69": 940,
      "32": 941,
      "70": 942,
      "45": 943,
      "Ġthan": 944,
      "act": 945,
      "Ġits": 946,
      "85": 947,
      "Ġcont": 948,
      "na": 949,
      "Ġwait": 950,
      "ade": 951,
      "ĠFacebook": 952,
      "89": 953,
      "Ġfirst": 954,
      "ĠYou": 955,
      "ash": 956,
      "Ġhapp": 957,
      "we": 958,
      "ĠPlay": 959,
      "av": 960,
      "Ġafter": 961,
      "!!!!!!!!": 962,
      "Ġwon": 963,
      "'ve": 964,
      "40": 965,
      "75": 966,
      "82": 967,
      "Ġthink": 968,
      "ans": 969,
      "Ġmost": 970,
      "62": 971,
      "play": 972,
      "led": 973,
      "oy": 974,
      "uc": 975,
      "ob": 976,
      "Ġthing": 977,
      "Ġexp": 978,
      "ned": 979,
      "ose": 980,
      "Ġneed": 981,
      "te": 982,
      "Ġvide": 983,
      "Ġstream": 984,
      "Ġbad": 985,
      "other": 986,
      "Ġapp": 987,
      "39": 988,
      "Ġfix": 989,
      "72": 990,
      "for": 991,
      "ree": 992,
      "Ġhere": 993,
      "49": 994,
      "Ġtoo": 995,
      "42": 996,
      "anks": 997,
      "ove": 998,
      "79": 999,
      "Ġaw": 1000,
      "Ġteam": 1001,
      "vers": 1002,
      "Ġsay": 1003,
      "Ġfin": 1004,
      "Ġdoes": 1005,
      "eel": 1006,
      "ĠAmazon": 1007,
      "Ġ$": 1008,
      "Ġtoday": 1009,
      "ĠX": 1010,
      "Ġever": 1011,
      "ĠCh": 1012,
      "sh": 1013,
      "Ġthese": 1014,
      "16": 1015,
      "ĠPS": 1016,
      "Ġ30": 1017,
      "Wh": 1018,
      "zing": 1019,
      "OR": 1020,
      "OU": 1021,
      "Ġday": 1022,
      "Ġcr": 1023,
      "33": 1024,
      "18": 1025,
      "Ġplayer": 1026,
      "xt": 1027,
      "Ġbet": 1028,
      "Ġqu": 1029,
      "Ġ100": 1030,
      "ĠDead": 1031,
      "mazing": 1032,
      "...\"": 1033,
      "Ġvery": 1034,
      "Ġdown": 1035,
      "read": 1036,
      "ark": 1037,
      "Ġwin": 1038,
      "????": 1039,
      "ason": 1040,
      "Ġright": 1041,
      "ES": 1042,
      "ĠThis": 1043,
      "ang": 1044,
      "ĠIn": 1045,
      "ĠâĢ¦": 1046,
      "ool": 1047,
      "Ġthen": 1048,
      "ðŁ": 1049,
      "ĠMicrosoft": 1050,
      "aking": 1051,
      "Ġvideo": 1052,
      "Ġwatch": 1053,
      "ich": 1054,
      "86": 1055,
      "Ġfeel": 1056,
      "50": 1057,
      "fe": 1058,
      "Ġlit": 1059,
      "Ġnever": 1060,
      "ance": 1061,
      "ube": 1062,
      "ĠGoogle": 1063,
      "17": 1064,
      "Ġke": 1065,
      "Ġhelp": 1066,
      "ght": 1067,
      "Ġactu": 1068,
      "Ġplease": 1069,
      "ory": 1070,
      "Ġgetting": 1071,
      "Ġalso": 1072,
      "OOOO": 1073,
      "ated": 1074,
      "Ġop": 1075,
      "ave": 1076,
      "46": 1077,
      "ound": 1078,
      "ull": 1079,
      "AN": 1080,
      "les": 1081,
      "ĠBattle": 1082,
      "Ġinter": 1083,
      "Ġbeing": 1084,
      "amn": 1085,
      "36": 1086,
      "Ġtwitch": 1087,
      "47": 1088,
      "87": 1089,
      "ited": 1090,
      "ther": 1091,
      "!\"": 1092,
      "ah": 1093,
      "Ġinto": 1094,
      "line": 1095,
      "Ġstart": 1096,
      "11": 1097,
      "ways": 1098,
      "Ġass": 1099,
      "Ġhis": 1100,
      "ward": 1101,
      "ĠVerizon": 1102,
      "ON": 1103,
      "app": 1104,
      "Ġcould": 1105,
      "ful": 1106,
      "ms": 1107,
      "craft": 1108,
      "ING": 1109,
      "It": 1110,
      "Ġpart": 1111,
      "sp": 1112,
      "Ġwee": 1113,
      "ute": 1114,
      "Ġlast": 1115,
      "Ġ[": 1116,
      "ĠNe": 1117,
      "Ġfe": 1118,
      "Ġyoutu": 1119,
      "Ġstop": 1120,
      "oint": 1121,
      "Ġplayed": 1122,
      "gg": 1123,
      "59": 1124,
      "52": 1125,
      "ĠAnd": 1126,
      "ey": 1127,
      "Ġar": 1128,
      "Ġgive": 1129,
      "ID": 1130,
      "Ġla": 1131,
      "ru": 1132,
      "ope": 1133,
      "37": 1134,
      "Ġamazing": 1135,
      "ĠčĊ": 1136,
      "ult": 1137,
      "ED": 1138,
      "nder": 1139,
      "Ġactually": 1140,
      "ĠEA": 1141,
      "Ġguys": 1142,
      "88": 1143,
      "ach": 1144,
      "ĠGTA": 1145,
      "Ġupd": 1146,
      "Ġbit": 1147,
      "Ġcome": 1148,
      "Ġper": 1149,
      "ĠSh": 1150,
      "urre": 1151,
      "ough": 1152,
      "ĠWe": 1153,
      "og": 1154,
      "ating": 1155,
      "Ġreal": 1156,
      "Ġher": 1157,
      "Ġmade": 1158,
      "Ġph": 1159,
      "Ġdes": 1160,
      "Ġred": 1161,
      "ĠBattlefield": 1162,
      "Ġyears": 1163,
      "Ġshould": 1164,
      "Ġbr": 1165,
      "90": 1166,
      "ath": 1167,
      "AT": 1168,
      "ĠRedemption": 1169,
      "Ġbig": 1170,
      "LL": 1171,
      "ock": 1172,
      "34": 1173,
      "Ġmon": 1174,
      "ta": 1175,
      "14": 1176,
      "Ġ2020": 1177,
      "Ġmiss": 1178,
      "aming": 1179,
      "oooooooo": 1180,
      "elf": 1181,
      "ct": 1182,
      "Ġcare": 1183,
      "Ġdec": 1184,
      "ĠRe": 1185,
      "Ġplayers": 1186,
      "38": 1187,
      "66": 1188,
      "Ġeveryone": 1189,
      "red": 1190,
      "ought": 1191,
      "22": 1192,
      "ĠHome": 1193,
      "Ġcall": 1194,
      "Ġsm": 1195,
      "My": 1196,
      "Ġnext": 1197,
      "Ġfrie": 1198,
      "ince": 1199,
      "ild": 1200,
      "Ġche": 1201,
      "Ġother": 1202,
      "isoft": 1203,
      "ty": 1204,
      "Ġshow": 1205,
      "CK": 1206,
      "alth": 1207,
      "oll": 1208,
      "Ġhim": 1209,
      "Ġdr": 1210,
      "Ġalways": 1211,
      "weet": 1212,
      "Ġwere": 1213,
      "io": 1214,
      "ily": 1215,
      "vel": 1216,
      "ĠTHE": 1217,
      "'re": 1218,
      "Ġsk": 1219,
      "ny": 1220,
      "akes": 1221,
      "Ġtw": 1222,
      "Ġ15": 1223,
      "Ġvia": 1224,
      "Ġlooks": 1225,
      "ĠDepot": 1226,
      "Ġinc": 1227,
      "Ġkeep": 1228,
      "ions": 1229,
      "Ġbl": 1230,
      "oney": 1231,
      "ĠFIFA": 1232,
      "Ġ0": 1233,
      "ĠBorderlands": 1234,
      "ieve": 1235,
      "Ġsame": 1236,
      "Ġsomething": 1237,
      "Ġproble": 1238,
      "VE": 1239,
      "ifa": 1240,
      "ready": 1241,
      "ik": 1242,
      "ph": 1243,
      "dy": 1244,
      "of": 1245,
      "ens": 1246,
      "igh": 1247,
      "bisoft": 1248,
      "ise": 1249,
      "IT": 1250,
      "ks": 1251,
      "ail": 1252,
      "row": 1253,
      "EE": 1254,
      "Ġlong": 1255,
      "ode": 1256,
      "aly": 1257,
      "Ġ19": 1258,
      "ĠCan": 1259,
      "ates": 1260,
      "Ġway": 1261,
      "Ġwhile": 1262,
      "Ġfav": 1263,
      "Ġbetter": 1264,
      "Ġpow": 1265,
      "Ġcard": 1266,
      "ĠCS": 1267,
      "Ġworld": 1268,
      "Ġmin": 1269,
      "ence": 1270,
      "!!!": 1271,
      "wn": 1272,
      "Ġlive": 1273,
      "ĠGame": 1274,
      "55": 1275,
      "ðŁ¤": 1276,
      "Ġanother": 1277,
      "Ġchar": 1278,
      "vie": 1279,
      "ord": 1280,
      "vent": 1281,
      "Ġimp": 1282,
      "ations": 1283,
      "Ġ\"": 1284,
      "Ġalready": 1285,
      "EAMaddenNFL": 1286,
      "Ġcomm": 1287,
      "net": 1288,
      "fore": 1289,
      "Ġmoney": 1290,
      "ics": 1291,
      "Ġmany": 1292,
      "76": 1293,
      "amp": 1294,
      "ress": 1295,
      "reak": 1296,
      "13": 1297,
      "Ġro": 1298,
      "iv": 1299,
      "alk": 1300,
      "rough": 1301,
      "Ġserv": 1302,
      "84": 1303,
      "get": 1304,
      "ĠMy": 1305,
      "ign": 1306,
      "Ġhour": 1307,
      "ĠSo": 1308,
      "wh": 1309,
      "Ġwhich": 1310,
      "Ġkill": 1311,
      "Ġbro": 1312,
      "92": 1313,
      "Ġbuy": 1314,
      "You": 1315,
      "ons": 1316,
      "Ġspe": 1317,
      "Ġhear": 1318,
      "ary": 1319,
      "Ġaccount": 1320,
      "Ġ50": 1321,
      "IS": 1322,
      "LE": 1323,
      "Ġpub": 1324,
      "the": 1325,
      "uper": 1326,
      "Ġsince": 1327,
      "Ġlot": 1328,
      "ased": 1329,
      "ĠPUBG": 1330,
      "Ġinst": 1331,
      "sol": 1332,
      "Ġx": 1333,
      "ND": 1334,
      "Ġhate": 1335,
      "ĠYOU": 1336,
      "!..": 1337,
      "Ġdamn": 1338,
      "................................": 1339,
      "ĠItaly": 1340,
      "Ġsuch": 1341,
      "Ġexcited": 1342,
      "Ġcra": 1343,
      "Ġsupport": 1344,
      "Ġear": 1345,
      "Ġadd": 1346,
      "ĠSeries": 1347,
      "IA": 1348,
      "So": 1349,
      "form": 1350,
      "go": 1351,
      "unch": 1352,
      "Ġrun": 1353,
      "Ġcompan": 1354,
      "Ġpost": 1355,
      "?\"": 1356,
      ".....": 1357,
      "joy": 1358,
      "onna": 1359,
      "Ġann": 1360,
      "ied": 1361,
      "Ġmonth": 1362,
      "Ġ40": 1363,
      "Ġim": 1364,
      "Ġwell": 1365,
      "Ġhappy": 1366,
      "VID": 1367,
      "ME": 1368,
      "ib": 1369,
      "duc": 1370,
      "ĠLegends": 1371,
      "ĠOverwatch": 1372,
      "less": 1373,
      "Ġ<": 1374,
      "Ġstore": 1375,
      "Ġ60": 1376,
      "Ġwar": 1377,
      "Ġthrough": 1378,
      "Ġlife": 1379,
      "ible": 1380,
      "Support": 1381,
      "Ġuse": 1382,
      "esome": 1383,
      "Ġnight": 1384,
      "tty": 1385,
      "TS": 1386,
      "Ġdead": 1387,
      "Ġnews": 1388,
      "ious": 1389,
      "ted": 1390,
      "Ġfree": 1391,
      "Ġupdate": 1392,
      "Ġaccess": 1393,
      "Ġbefore": 1394,
      "ĠNo": 1395,
      "Ġhealth": 1396,
      "reen": 1397,
      "Ġwr": 1398,
      "Ġdoesn": 1399,
      "low": 1400,
      "ĠCreed": 1401,
      "iff": 1402,
      "cc": 1403,
      "ian": 1404,
      "Ġdays": 1405,
      "ĠCall": 1406,
      "uff": 1407,
      "Ġ|": 1408,
      "Ġunder": 1409,
      "ĠWarcraft": 1410,
      "Ġhard": 1411,
      "tf": 1412,
      "Ġ70": 1413,
      "Ġhome": 1414,
      "95": 1415,
      "Ġdone": 1416,
      "Ġ21": 1417,
      "'ll": 1418,
      "74": 1419,
      "ably": 1420,
      "fin": 1421,
      "Ġtake": 1422,
      "als": 1423,
      "Ġdoing": 1424,
      "solute": 1425,
      "ors": 1426,
      "li": 1427,
      "Ġgonna": 1428,
      "Ġ=": 1429,
      "ĠBlack": 1430,
      "que": 1431,
      "Ġ80": 1432,
      "Ġ90": 1433,
      "!!!!!!!!!!!!!!!!": 1434,
      "pr": 1435,
      "Johnson": 1436,
      "Tube": 1437,
      "ins": 1438,
      "oss": 1439,
      "ical": 1440,
      ",.": 1441,
      "Ġtwo": 1442,
      "Ġend": 1443,
      "Ġ131": 1444,
      "zy": 1445,
      "Ġdidn": 1446,
      "Ġrec": 1447,
      "Ġhaving": 1448,
      "aby": 1449,
      "Ġwhere": 1450,
      "ĠCom": 1451,
      "round": 1452,
      "ĠAssassin": 1453,
      "Ġfort": 1454,
      "lete": 1455,
      "Ġmay": 1456,
      "ĠâĢľ": 1457,
      "Ġold": 1458,
      "hing": 1459,
      "25": 1460,
      "ĠOn": 1461,
      "self": 1462,
      "Ġlate": 1463,
      "obile": 1464,
      "mer": 1465,
      "pl": 1466,
      "Ġread": 1467,
      "Ġra": 1468,
      "orite": 1469,
      "ĠWhy": 1470,
      "erally": 1471,
      "gr": 1472,
      "upid": 1473,
      "Ġgoogle": 1474,
      "Ġsomeone": 1475,
      "Ġtrying": 1476,
      "Ġpay": 1477,
      "ĠThanks": 1478,
      "UN": 1479,
      "Ġhell": 1480,
      "ĠHearthstone": 1481,
      "Ġgen": 1482,
      "Ġcool": 1483,
      "ĠLeague": 1484,
      "Ġthings": 1485,
      "Ġtra": 1486,
      "ĠTO": 1487,
      "aw": 1488,
      "ollow": 1489,
      "Ġpretty": 1490,
      "Ġart": 1491,
      "ports": 1492,
      "Ġ130": 1493,
      "Ġfinally": 1494,
      "iness": 1495,
      "Ġenjoy": 1496,
      "ition": 1497,
      "Ġlet": 1498,
      "ues": 1499,
      "Ġsy": 1500,
      "Ġawesome": 1501,
      "ST": 1502,
      "ok": 1503,
      "ci": 1504,
      "news": 1505,
      "64": 1506,
      "Ġsuck": 1507,
      "ĠWorld": 1508,
      "ox": 1509,
      "Ġboth": 1510,
      "Ġkind": 1511,
      "Ġmaking": 1512,
      "erson": 1513,
      "81": 1514,
      "Ġter": 1515,
      "Ġtop": 1516,
      "izon": 1517,
      "ĠAl": 1518,
      "Ġlooking": 1519,
      "OT": 1520,
      "oot": 1521,
      "ale": 1522,
      "Ġonline": 1523,
      "Ġ110": 1524,
      "esting": 1525,
      "Ġres": 1526,
      "Ġsaid": 1527,
      "Ġ2077": 1528,
      "Ġgi": 1529,
      "ters": 1530,
      "Ġfavorite": 1531,
      "Ġput": 1532,
      "UT": 1533,
      "bably": 1534,
      "Ġ]": 1535,
      "83": 1536,
      "Ġ)": 1537,
      "ĠPC": 1538,
      "most": 1539,
      "ĠCO": 1540,
      "Ġopen": 1541,
      "time": 1542,
      "ĠDuty": 1543,
      "Ġweek": 1544,
      "Ġtell": 1545,
      "ange": 1546,
      "Ġmatch": 1547,
      "ork": 1548,
      "Ġ22": 1549,
      "67": 1550,
      "Ġdiff": 1551,
      "ĠUn": 1552,
      "unity": 1553,
      "Ġ32": 1554,
      "ĠDe": 1555,
      "urrent": 1556,
      "ices": 1557,
      "eam": 1558,
      "ĠLe": 1559,
      "If": 1560,
      "acc": 1561,
      "Ġservers": 1562,
      "Ġfind": 1563,
      "ision": 1564,
      "ont": 1565,
      "oun": 1566,
      "Ġguy": 1567,
      "ĠWhat": 1568,
      "ĠIN": 1569,
      "ĠPlease": 1570,
      "Ġhours": 1571,
      "ater": 1572,
      "usiness": 1573,
      "ired": 1574,
      "Ġstupid": 1575,
      "Ġlist": 1576,
      "Ġeverything": 1577,
      "ĠZ": 1578,
      "ves": 1579,
      "ĠIf": 1580,
      "ten": 1581,
      "Ġco": 1582,
      "ustom": 1583,
      "Ġfull": 1584,
      "Ġproblem": 1585,
      "OW": 1586,
      "Ġmakes": 1587,
      "Ġhope": 1588,
      "ĠNvidia": 1589,
      "Ġfortnite": 1590,
      "Ġz": 1591,
      "Ġsell": 1592,
      "Ġ25": 1593,
      "2020": 1594,
      "AY": 1595,
      "Ġthose": 1596,
      "verizon": 1597,
      "eeee": 1598,
      "ĠBut": 1599,
      "ped": 1600,
      "und": 1601,
      "ĠThat": 1602,
      "Ġworking": 1603,
      "Ġmo": 1604,
      "Ġ99": 1605,
      "Ġlol": 1606,
      "ng": 1607,
      "ond": 1608,
      "Ġabsolute": 1609,
      "Ġfew": 1610,
      "Ġcharac": 1611,
      "ments": 1612,
      "Ġlittle": 1613,
      "aut": 1614,
      "til": 1615,
      ",,": 1616,
      "UCK": 1617,
      "âĢĿ": 1618,
      "Ġoverwatch": 1619,
      ",\"\"\"": 1620,
      "Ġown": 1621,
      "ĠAND": 1622,
      "Ġphone": 1623,
      "ĠRainbow": 1624,
      "IL": 1625,
      "iting": 1626,
      "ese": 1627,
      "Ġuntil": 1628,
      "Ġagainst": 1629,
      "Ġliterally": 1630,
      "mber": 1631,
      "Ġsure": 1632,
      "Ġfar": 1633,
      "ĠUS": 1634,
      "ĠðŁ¤": 1635,
      "Ġiss": 1636,
      "Ġrem": 1637,
      "Ġcompany": 1638,
      "Ġaround": 1639,
      "ĠBe": 1640,
      "Ġton": 1641,
      "Ġset": 1642,
      "Ġprobably": 1643,
      "its": 1644,
      "illion": 1645,
      "Ġhappen": 1646,
      "Ġcurrent": 1647,
      "ĠThey": 1648,
      "oc": 1649,
      "Ġamazon": 1650,
      "Ġ24": 1651,
      "Ġ29": 1652,
      "Ġconso": 1653,
      "?.": 1654,
      "db": 1655,
      "Ġorder": 1656,
      "Ġwhole": 1657,
      "Ġseries": 1658,
      "Ġel": 1659,
      "Ġ52": 1660,
      "Ġ72": 1661,
      "Ġfriends": 1662,
      "med": 1663,
      "oment": 1664,
      "ĠDE": 1665,
      "itch": 1666,
      "Ġgl": 1667,
      "ĠTo": 1668,
      "ĠPro": 1669,
      "Ġtry": 1670,
      "RO": 1671,
      "ner": 1672,
      "Ġ*": 1673,
      "ings": 1674,
      "Ġ35": 1675,
      "ĠOne": 1676,
      "ĠNow": 1677,
      "Ġreason": 1678,
      "Ġrank": 1679,
      "wards": 1680,
      "Ġperson": 1681,
      "Ġhigh": 1682,
      "alled": 1683,
      "Ġnice": 1684,
      "ĠCl": 1685,
      "heck": 1686,
      "Ġ82": 1687,
      "Ġtimes": 1688,
      "Ġproduc": 1689,
      "ĠQ": 1690,
      "Ġgr": 1691,
      "econd": 1692,
      "Ġworst": 1693,
      "ĠThank": 1694,
      "autif": 1695,
      "fect": 1696,
      "mm": 1697,
      "Ġbf": 1698,
      "Ġevent": 1699,
      "Ġ112": 1700,
      "ĠON": 1701,
      "Ġtur": 1702,
      "Ġthought": 1703,
      "raph": 1704,
      "VIDIA": 1705,
      "Ġtalk": 1706,
      "Ġ92": 1707,
      "Ġcomplete": 1708,
      "Ġthank": 1709,
      "Ġ62": 1710,
      "Ġ102": 1711,
      "IC": 1712,
      "ats": 1713,
      "Ġservice": 1714,
      "Sh": 1715,
      "pic": 1716,
      "Just": 1717,
      "ĠIS": 1718,
      "autiful": 1719,
      "Ġ39": 1720,
      "ĠGO": 1721,
      "RE": 1722,
      "Ġcar": 1723,
      "Ġanything": 1724,
      "We": 1725,
      "Ġcustom": 1726,
      "Ġ59": 1727,
      "Ġ75": 1728,
      "Ġalmost": 1729,
      "Ġseason": 1730,
      "?!": 1731,
      "Ġfl": 1732,
      "Ġbanned": 1733,
      "Ġcor": 1734,
      "Ġtech": 1735,
      "aa": 1736,
      "onn": 1737,
      "Ġnothing": 1738,
      "000": 1739,
      "mor": 1740,
      "ows": 1741,
      "irl": 1742,
      "UNK": 1743,
      "Ġ45": 1744,
      "lock": 1745,
      "Ġfact": 1746,
      "Ġyet": 1747,
      "Ġlaunch": 1748,
      "ofDuty": 1749,
      "Ġ16": 1750,
      "Ġstuff": 1751,
      "OOOOOOOO": 1752,
      "man": 1753,
      "chieve": 1754,
      "ĠEAMaddenNFL": 1755,
      "ction": 1756,
      "fr": 1757,
      "Ġocc": 1758,
      "ĠPr": 1759,
      "Ġdrop": 1760,
      "--": 1761,
      "ax": 1762,
      "Ġ55": 1763,
      "????????": 1764,
      "bs": 1765,
      "Ġps": 1766,
      "Ġcontro": 1767,
      "org": 1768,
      "ery": 1769,
      "utes": 1770,
      "ĠNBA": 1771,
      "Ġsad": 1772,
      "Ġstory": 1773,
      "ĠBl": 1774,
      "ird": 1775,
      "In": 1776,
      "Ġ85": 1777,
      "Ġanyone": 1778,
      "sgo": 1779,
      "ump": 1780,
      "esp": 1781,
      "Ġ79": 1782,
      "Ġleague": 1783,
      "Ġpubg": 1784,
      "Ġtonight": 1785,
      "Ġ42": 1786,
      "Ġ69": 1787,
      "ĠEx": 1788,
      "uring": 1789,
      "Ġfinish": 1790,
      "Re": 1791,
      "Ġ89": 1792,
      "Ġpower": 1793,
      "SP": 1794,
      "Ġbaby": 1795,
      "Ġpo": 1796,
      "ĠFortnite": 1797,
      "Ġfollow": 1798,
      "Ġusing": 1799,
      "Ġscreen": 1800,
      "ĠOf": 1801,
      "ĠHe": 1802,
      "Ġ65": 1803,
      "Ġshe": 1804,
      "Ġsecond": 1805,
      "Ġ95": 1806,
      "GE": 1807,
      "Ġblack": 1808,
      "ĠWH": 1809,
      "ĠFUCK": 1810,
      "ĠOF": 1811,
      "umb": 1812,
      "Ġresp": 1813,
      "Ġchance": 1814,
      "oooooooooooooooo": 1815,
      "Ġid": 1816,
      "ĠIs": 1817,
      "Ġduty": 1818,
      "Ġwithout": 1819,
      "Ġsl": 1820,
      "asy": 1821,
      "inal": 1822,
      "erious": 1823,
      "Ġused": 1824,
      "ĠCSGO": 1825,
      "Ubisoft": 1826,
      "ye": 1827,
      "rible": 1828,
      "load": 1829,
      "Ġsuper": 1830,
      "Ġ14": 1831,
      "Ġ119": 1832,
      "ense": 1833,
      "gest": 1834,
      "Ġ109": 1835,
      "ken": 1836,
      "Ġ115": 1837,
      "ĠAll": 1838,
      "ĠCo": 1839,
      "Ġcoming": 1840,
      "ĠFor": 1841,
      "Ġ125": 1842,
      "Ġ129": 1843,
      "finite": 1844,
      "ially": 1845,
      "tr": 1846,
      "ĠMe": 1847,
      "Ġcrash": 1848,
      "stem": 1849,
      "Ġ49": 1850,
      "ept": 1851,
      "Ġdisapp": 1852,
      "appy": 1853,
      "Ġ+": 1854,
      "Ġlost": 1855,
      "Ġ105": 1856,
      "TH": 1857,
      "her": 1858,
      "arket": 1859,
      "onest": 1860,
      "ĠNot": 1861,
      "cess": 1862,
      "ness": 1863,
      "ĠDo": 1864,
      "Ġyout": 1865,
      "game": 1866,
      "mon": 1867,
      "Ġsays": 1868,
      "ĠJust": 1869,
      "station": 1870,
      "Ġ17": 1871,
      "Ġide": 1872,
      ").": 1873,
      "Ġvacc": 1874,
      "Ġconn": 1875,
      "Ġfriend": 1876,
      "oying": 1877,
      "ĠSp": 1878,
      "ĠUbisoft": 1879,
      "tain": 1880,
      "Ġins": 1881,
      "ection": 1882,
      "Ġcommunity": 1883,
      "hh": 1884,
      "Ġrest": 1885,
      "ĠAn": 1886,
      "Ġstr": 1887,
      "Ġexperi": 1888,
      "Ġyoutube": 1889,
      ",<": 1890,
      "Ġmove": 1891,
      "ush": 1892,
      "Ġwent": 1893,
      "Ġgta": 1894,
      "icial": 1895,
      "my": 1896,
      "US": 1897,
      "olog": 1898,
      "VER": 1899,
      "YY": 1900,
      "ike": 1901,
      "usic": 1902,
      "ĠFr": 1903,
      "Ġmean": 1904,
      "Ġminutes": 1905,
      "For": 1906,
      "Ġthanks": 1907,
      "Ġworth": 1908,
      "Ġmor": 1909,
      "Ġreg": 1910,
      "PlayApex": 1911,
      "Ġrelease": 1912,
      "ĠYouTube": 1913,
      "Ġdiffer": 1914,
      "ots": 1915,
      "ĠOps": 1916,
      "Ġenough": 1917,
      "Ġcrazy": 1918,
      "Ġwrong": 1919,
      "Ġfacebook": 1920,
      "Ġhit": 1921,
      "Ġname": 1922,
      "Ġcheck": 1923,
      "sc": 1924,
      "Ġbusiness": 1925,
      "Ġhal": 1926,
      "Ġline": 1927,
      "âĢ¦\"": 1928,
      "ban": 1929,
      "Ġsub": 1930,
      "amer": 1931,
      "Ġpoint": 1932,
      "ĠApp": 1933,
      "ier": 1934,
      "ror": 1935,
      "orry": 1936,
      "Ġluck": 1937,
      "ĠSEE": 1938,
      "Ġaway": 1939,
      "Ġsur": 1940,
      "Ġent": 1941,
      "Ġbattle": 1942,
      "star": 1943,
      "Ġclass": 1944,
      "Ġbeautiful": 1945,
      "view": 1946,
      "uu": 1947,
      "Ġ13": 1948,
      "ared": 1949,
      "cial": 1950,
      "Ġdisc": 1951,
      "izz": 1952,
      "ĠNew": 1953,
      "63": 1954,
      "Ġind": 1955,
      "Ġsystem": 1956,
      "Ġconsole": 1957,
      "uge": 1958,
      "ular": 1959,
      "urred": 1960,
      "Ġ..": 1961,
      "ross": 1962,
      "Ġtrash": 1963,
      "Thank": 1964,
      "Ġwonder": 1965,
      "AR": 1966,
      "ĠGo": 1967,
      "Ġcontent": 1968,
      "Ġoccurred": 1969,
      "Ġbreak": 1970,
      "ĠCold": 1971,
      "AS": 1972,
      "ug": 1973,
      "Ġed": 1974,
      "alc": 1975,
      "Ġforward": 1976,
      "Ġcons": 1977,
      "Why": 1978,
      "ex": 1979,
      "ĠIT": 1980,
      "Ġjob": 1981,
      "Ġinteresting": 1982,
      "Ġpowder": 1983,
      "61": 1984,
      "not": 1985,
      "ram": 1986,
      "ware": 1987,
      "Ġdl": 1988,
      "Ġdue": 1989,
      "Ġlegends": 1990,
      "Ġhead": 1991,
      "Ġpass": 1992,
      "Ġgaming": 1993,
      "???": 1994,
      "quest": 1995,
      "Ġ>": 1996,
      "Ġ18": 1997,
      "ĠRT": 1998,
      "ture": 1999,
      "Ġago": 2000,
      "EN": 2001,
      "Ġbroken": 2002,
      "71": 2003,
      "Ġmess": 2004,
      "ved": 2005,
      "Ġcol": 2006,
      "ips": 2007,
      "Ġsound": 2008,
      "lic": 2009,
      "lain": 2010,
      "Ġgets": 2011,
      "aken": 2012,
      "finitely": 2013,
      "Ġsoon": 2014,
      "ET": 2015,
      "vr": 2016,
      "igg": 2017,
      "eep": 2018,
      "roud": 2019,
      "Ġvaccine": 2020,
      "ata": 2021,
      "imp": 2022,
      "Ġable": 2023,
      "ital": 2024,
      "len": 2025,
      "Ġfan": 2026,
      "Ġelse": 2027,
      "Ġmode": 2028,
      "Ġfifa": 2029,
      "Ġmyself": 2030,
      "rump": 2031,
      "43": 2032,
      "78": 2033,
      "Ġcause": 2034,
      "Ġfound": 2035,
      "Ġcsgo": 2036,
      "Ġ26": 2037,
      "ĠSH": 2038,
      "Ġinternet": 2039,
      "AL": 2040,
      "Hey": 2041,
      "ORTS": 2042,
      "41": 2043,
      "Ġcanc": 2044,
      "ific": 2045,
      "Ġmed": 2046,
      "earch": 2047,
      "Ġkid": 2048,
      "ILS": 2049,
      "No": 2050,
      "Ġmillion": 2051,
      "CallofDuty": 2052,
      "oke": 2053,
      "ane": 2054,
      "stand": 2055,
      "Ġboy": 2056,
      "Ġcant": 2057,
      "Ġreport": 2058,
      "That": 2059,
      "48": 2060,
      "Ġthough": 2061,
      "ages": 2062,
      "ongr": 2063,
      "SPORTS": 2064,
      "lud": 2065,
      "Ġmoment": 2066,
      "Ġannoun": 2067,
      "Ġve": 2068,
      "AM": 2069,
      "Fuck": 2070,
      "]\"": 2071,
      "Ġfam": 2072,
      "illed": 2073,
      "Ġmain": 2074,
      "acks": 2075,
      "Ġgod": 2076,
      "Ġconf": 2077,
      "Ġskin": 2078,
      "reate": 2079,
      "Ġpol": 2080,
      "ĠGhostRecon": 2081,
      "ĠHow": 2082,
      "ĠLO": 2083,
      "ĠTwitch": 2084,
      "Ġ28": 2085,
      "aster": 2086,
      "Ġabsolutely": 2087,
      "anna": 2088,
      "Ġbought": 2089,
      "TAILS": 2090,
      "ĠLove": 2091,
      "Ġperfect": 2092,
      "times": 2093,
      ":.": 2094,
      "Ġsou": 2095,
      "..\"": 2096,
      "ĠFifa": 2097,
      "AA": 2098,
      "ouse": 2099,
      "member": 2100,
      "Ġload": 2101,
      "ĠDETAILS": 2102,
      "air": 2103,
      "Ġ86": 2104,
      "aj": 2105,
      "Ġdesp": 2106,
      "Ġhy": 2107,
      "ected": 2108,
      "no": 2109,
      "ĠTr": 2110,
      "gs": 2111,
      "Ġwtf": 2112,
      "ĠSO": 2113,
      "Ġhaven": 2114,
      "ĠTHIS": 2115,
      "ha": 2116,
      "ual": 2117,
      "rew": 2118,
      "orm": 2119,
      "Ġ36": 2120,
      "ife": 2121,
      "Ġur": 2122,
      "ony": 2123,
      "Ġ76": 2124,
      "Ġplace": 2125,
      ">.": 2126,
      "Ġgameplay": 2127,
      "ever": 2128,
      "mail": 2129,
      "Ġ200": 2130,
      "Ġmonths": 2131,
      "ls": 2132,
      "ĠTwitter": 2133,
      "ĠDota": 2134,
      "100": 2135,
      "Ġborderlands": 2136,
      "enc": 2137,
      "Ġwanted": 2138,
      "73": 2139,
      "zone": 2140,
      "Ġmight": 2141,
      "ĠOr": 2142,
      "Ġinstead": 2143,
      "And": 2144,
      "aus": 2145,
      "Ġchange": 2146,
      "Ġmorning": 2147,
      "Ġtweet": 2148,
      "ĠVal": 2149,
      "ĠFuck": 2150,
      "EO": 2151,
      "more": 2152,
      "eli": 2153,
      "Ġseems": 2154,
      "Ġenter": 2155,
      "meric": 2156,
      "Ġbel": 2157,
      "Ġidea": 2158,
      "Ġduring": 2159,
      "Ġrel": 2160,
      "Ġgirl": 2161,
      "ize": 2162,
      "Ġentire": 2163,
      "Ġtot": 2164,
      "body": 2165,
      "EAM": 2166,
      "Ġsaying": 2167,
      "When": 2168,
      "Ġcomes": 2169,
      "work": 2170,
      "Ġcame": 2171,
      "Ġgraph": 2172,
      "Ġisn": 2173,
      "ider": 2174,
      "Ġlevel": 2175,
      "ling": 2176,
      "Ġcle": 2177,
      "Ġdri": 2178,
      "Ġdelay": 2179,
      "What": 2180,
      "Ġhack": 2181,
      "Ġret": 2182,
      "ets": 2183,
      "chievement": 2184,
      "aily": 2185,
      "mb": 2186,
      "Ġsing": 2187,
      "Ġer": 2188,
      "ars": 2189,
      "Ġtomor": 2190,
      "Ġ56": 2191,
      "Ġtomorrow": 2192,
      "az": 2193,
      "Ġask": 2194,
      "Ġincred": 2195,
      "Wow": 2196,
      "Ġdie": 2197,
      ".\"\"": 2198,
      "Ġrac": 2199,
      "Ġseen": 2200,
      "Oh": 2201,
      "Ġcount": 2202,
      "andom": 2203,
      "Ġru": 2204,
      "Ġproblems": 2205,
      "CH": 2206,
      "Ġsit": 2207,
      "Ġpatch": 2208,
      "ĠAmeric": 2209,
      "ĠCyberpunk": 2210,
      "Ġchang": 2211,
      "Ġcurrently": 2212,
      "Ġsup": 2213,
      "Ġbo": 2214,
      "Ġ118": 2215,
      "Ġext": 2216,
      "Ġfeels": 2217,
      "velop": 2218,
      "Ġspeed": 2219,
      "izzard": 2220,
      "Ġservices": 2221,
      "ama": 2222,
      "Ġlatest": 2223,
      "ster": 2224,
      "ĠGood": 2225,
      "Ġ116": 2226,
      "Ġtried": 2227,
      "Ġvers": 2228,
      "Ġnvidia": 2229,
      "ĠDO": 2230,
      "Ġjoin": 2231,
      "Ġwatching": 2232,
      "onestly": 2233,
      "Ġdifferent": 2234,
      "ping": 2235,
      "ww": 2236,
      "ĠWatch": 2237,
      "ĠNVIDIA": 2238,
      "................................................................": 2239,
      "Ġterrible": 2240,
      "Ġranked": 2241,
      "ann": 2242,
      "Ġref": 2243,
      "Ġrele": 2244,
      "Ġcharacter": 2245,
      "Ġdlvr": 2246,
      "Ġcalled": 2247,
      "Ġlink": 2248,
      "ger": 2249,
      "uly": 2250,
      "Ġmarket": 2251,
      "ically": 2252,
      "Ġstarted": 2253,
      "where": 2254,
      "ged": 2255,
      "uk": 2256,
      "Ġtaken": 2257,
      "Ġcreat": 2258,
      "Ġhand": 2259,
      "Ġ126": 2260,
      "Ġneeds": 2261,
      "Ġinclud": 2262,
      "eriously": 2263,
      "bb": 2264,
      "ĠAr": 2265,
      "Ġ31": 2266,
      "Ġdont": 2267,
      "Ġbull": 2268,
      "ockstar": 2269,
      "Ġunderstand": 2270,
      "Ġhalf": 2271,
      "ĠBest": 2272,
      "Ġ66": 2273,
      "indows": 2274,
      "Ġbring": 2275,
      "Ġonce": 2276,
      "uz": 2277,
      "ĠAT": 2278,
      "ately": 2279,
      "ester": 2280,
      "21": 2281,
      "int": 2282,
      "Ġsw": 2283,
      "Ġdota": 2284,
      "Ġlos": 2285,
      "Ġ96": 2286,
      "ĠEvery": 2287,
      "Ġbuying": 2288,
      "Ġcontin": 2289,
      "Ġ'": 2290,
      "ðŁ¥": 2291,
      "Ġcards": 2292,
      "Ġselling": 2293,
      "Can": 2294,
      "kend": 2295,
      "Ġ46": 2296,
      "ently": 2297,
      "bal": 2298,
      "point": 2299,
      "edia": 2300,
      "Ġ37": 2301,
      "iler": 2302,
      "ude": 2303,
      "ple": 2304,
      "vil": 2305,
      "ature": 2306,
      "Ġface": 2307,
      "Ġhuge": 2308,
      "Ġ27": 2309,
      "Ġshot": 2310,
      "Ġatt": 2311,
      "Ġexperience": 2312,
      "IVE": 2313,
      "MO": 2314,
      "xx": 2315,
      "Ġhor": 2316,
      "Ġstep": 2317,
      "ĠMay": 2318,
      "Ġ106": 2319,
      "Ġmusic": 2320,
      "Ġift": 2321,
      "Ġless": 2322,
      "Ġmaybe": 2323,
      "How": 2324,
      "br": 2325,
      "ask": 2326,
      "ott": 2327,
      "Ġbeh": 2328,
      "Ġ38": 2329,
      "ĠNE": 2330,
      "ĠPlayStation": 2331,
      "Ġredemption": 2332,
      "!!!!!!!!!!!!!!!!!!!!!!!!!!!!!!!!": 2333,
      "Ġcompletely": 2334,
      "Ġ98": 2335,
      "Ġtook": 2336,
      "Help": 2337,
      "uy": 2338,
      "reci": 2339,
      "ident": 2340,
      "ully": 2341,
      "AME": 2342,
      "ming": 2343,
      "Ġ57": 2344,
      "irus": 2345,
      "Ġlow": 2346,
      "ĠApex": 2347,
      "Ġprom": 2348,
      "Ġstreaming": 2349,
      "ssey": 2350,
      "irth": 2351,
      "Ġprice": 2352,
      "ĠPL": 2353,
      "Ġdefinitely": 2354,
      "ism": 2355,
      "osed": 2356,
      "ĠSc": 2357,
      "ĠMY": 2358,
      "mag": 2359,
      "Ġ78": 2360,
      "Ġ117": 2361,
      "ĠEd": 2362,
      "Ġdeal": 2363,
      "ission": 2364,
      "shit": 2365,
      "Check": 2366,
      "ĠGrand": 2367,
      "Ġanymore": 2368,
      "iec": 2369,
      "Ġmobile": 2370,
      "Ġ47": 2371,
      "Ġ67": 2372,
      "dyssey": 2373,
      "gether": 2374,
      "Ġsol": 2375,
      "irthday": 2376,
      "IG": 2377,
      "au": 2378,
      "oly": 2379,
      "atul": 2380,
      "ald": 2381,
      "ĠGreat": 2382,
      "ĠMan": 2383,
      "Ġprop": 2384,
      "CE": 2385,
      "oice": 2386,
      "Ġ108": 2387,
      "Ġworse": 2388,
      "ĠâĢ¢": 2389,
      "LY": 2390,
      "ote": 2391,
      "'d": 2392,
      "ai": 2393,
      "facebook": 2394,
      "Ġsch": 2395,
      "Ġlater": 2396,
      "this": 2397,
      "Ġmen": 2398,
      "Ġ77": 2399,
      "Thanks": 2400,
      "II": 2401,
      "SE": 2402,
      "Ġ88": 2403,
      "Ġdisappoint": 2404,
      "ology": 2405,
      "Ġpoin": 2406,
      "Ġdam": 2407,
      "icle": 2408,
      "Ġnet": 2409,
      "Ġ94": 2410,
      "Ġ97": 2411,
      "Ġexciting": 2412,
      "Ġweekend": 2413,
      "cast": 2414,
      "Ġcop": 2415,
      "Ġgar": 2416,
      "Ġbelow": 2417,
      "ĠBr": 2418,
      "Ġ48": 2419,
      "LD": 2420,
      "Ġsimp": 2421,
      "Ġ34": 2422,
      "Ġrid": 2423,
      "68": 2424,
      "ĠInd": 2425,
      "Ġtogether": 2426,
      "ither": 2427,
      "Ġ127": 2428,
      "Ġspend": 2429,
      "UK": 2430,
      "come": 2431,
      "ĠAs": 2432,
      "player": 2433,
      "RT": 2434,
      "Ġdeli": 2435,
      "Ġpartic": 2436,
      "ton": 2437,
      "Ġav": 2438,
      "Ġposs": 2439,
      "Ġdevelop": 2440,
      "At": 2441,
      "Ġpast": 2442,
      "ĠST": 2443,
      "ored": 2444,
      "EST": 2445,
      "Ġgraphics": 2446,
      "TF": 2447,
      "ject": 2448,
      "lus": 2449,
      "omb": 2450,
      "Ġemp": 2451,
      "ĠSome": 2452,
      "ĠAM": 2453,
      "Ġ68": 2454,
      "Ġseeing": 2455,
      "log": 2456,
      "Ġsingle": 2457,
      "Be": 2458,
      "Good": 2459,
      "ient": 2460,
      "Ġsorry": 2461,
      "Ġwanna": 2462,
      "ĠSe": 2463,
      "omen": 2464,
      "Ġkinda": 2465,
      "way": 2466,
      "xic": 2467,
      "Ġtalc": 2468,
      "ised": 2469,
      "Ġitem": 2470,
      "Ġshare": 2471,
      "playstation": 2472,
      "Ġearned": 2473,
      "Ġfinished": 2474,
      "Ġmad": 2475,
      "Ġdet": 2476,
      "ided": 2477,
      "Ġrep": 2478,
      "Ġ128": 2479,
      "Ġtrue": 2480,
      "ball": 2481,
      "atter": 2482,
      "ising": 2483,
      "Ġ87": 2484,
      "Games": 2485,
      "Ġissues": 2486,
      "Al": 2487,
      "fully": 2488,
      "pt": 2489,
      "ually": 2490,
      "Ġmod": 2491,
      "Ġdata": 2492,
      "ĠGod": 2493,
      "ĠHA": 2494,
      "dern": 2495,
      "ĠEU": 2496,
      "ĠPlayApex": 2497,
      "!...": 2498,
      "Ġkick": 2499,
      "Ġtwitter": 2500,
      "anch": 2501,
      "Ġproud": 2502,
      "Ġremember": 2503,
      "uss": 2504,
      "ĠFOR": 2505,
      "Ġsocial": 2506,
      "Ġ114": 2507,
      "Ġlog": 2508,
      "Ġleave": 2509,
      "Ġappreci": 2510,
      "PU": 2511,
      "fl": 2512,
      "Ġlear": 2513,
      "Ġleast": 2514,
      "Ġsucks": 2515,
      "ajor": 2516,
      "esterday": 2517,
      "Great": 2518,
      "vious": 2519,
      "ution": 2520,
      "Ġleft": 2521,
      "Ch": 2522,
      "Ġwish": 2523,
      "lect": 2524,
      "oring": 2525,
      "Ġpage": 2526,
      "Ġmind": 2527,
      "ĠCome": 2528,
      "mao": 2529,
      "Ġ84": 2530,
      "Ġserver": 2531,
      "Ġsmall": 2532,
      "UA": 2533,
      "ios": 2534,
      "ĠFR": 2535,
      "Ġ74": 2536,
      "ahah": 2537,
      "Ġannoying": 2538,
      "atulations": 2539,
      "To": 2540,
      "ĠChr": 2541,
      "mend": 2542,
      "Ġguess": 2543,
      "ines": 2544,
      "ones": 2545,
      "Ġchild": 2546,
      "umber": 2547,
      "Ġspec": 2548,
      "ĠComm": 2549,
      "Ġbelieve": 2550,
      "Ġment": 2551,
      "Ġ58": 2552,
      "ists": 2553,
      "lobal": 2554,
      "Ġswitch": 2555,
      "Ġ107": 2556,
      "Ġlead": 2557,
      "Ġxbox": 2558,
      "PP": 2559,
      "name": 2560,
      "ities": 2561,
      "lent": 2562,
      "New": 2563,
      "Ġ44": 2564,
      "Ġ64": 2565,
      "Ġ81": 2566,
      "ween": 2567,
      "Âł": 2568,
      "ict": 2569,
      "lection": 2570,
      "Ġpur": 2571,
      "ĠGet": 2572,
      "Ġact": 2573,
      "Bl": 2574,
      "ining": 2575,
      "Ġorig": 2576,
      "Ġcompet": 2577,
      "Ġwaiting": 2578,
      "ather": 2579,
      "YouTube": 2580,
      "Ġheart": 2581,
      "An": 2582,
      "how": 2583,
      "Ġ124": 2584,
      "Ġconc": 2585,
      "tend": 2586,
      "Ġperform": 2587,
      "Gaming": 2588,
      "ĠWhen": 2589,
      "Ġplan": 2590,
      "Ġdespite": 2591,
      "aim": 2592,
      "astic": 2593,
      "arent": 2594,
      "onnie": 2595,
      "Ġval": 2596,
      "Don": 2597,
      "Ġmust": 2598,
      "Ġfunny": 2599,
      "ONE": 2600,
      "Ġgener": 2601,
      "ĠAlso": 2602,
      "Ġcontroll": 2603,
      "Best": 2604,
      "TEAM": 2605,
      "ipp": 2606,
      "res": 2607,
      "gend": 2608,
      "elcome": 2609,
      "ility": 2610,
      "roup": 2611,
      "Ġthree": 2612,
      "ada": 2613,
      "ĠTeam": 2614,
      "Ġkilled": 2615,
      "ĠYour": 2616,
      "aid": 2617,
      "Ġfac": 2618,
      "Ġfans": 2619,
      "Ġrece": 2620,
      "Ġvie": 2621,
      "ĠGames": 2622,
      "ĠRTX": 2623,
      "Some": 2624,
      "Ġhot": 2625,
      "Ġeach": 2626,
      "ĠWith": 2627,
      "agram": 2628,
      "istory": 2629,
      "Ġgift": 2630,
      "ongratulations": 2631,
      "ĠÂ": 2632,
      "ĠMo": 2633,
      "Ġ41": 2634,
      "ĠThere": 2635,
      "Ġbecome": 2636,
      "ĠChin": 2637,
      "CT": 2638,
      "per": 2639,
      "yn": 2640,
      "Ġtaking": 2641,
      "ĠSuper": 2642,
      "Ġ51": 2643,
      "Ġsaw": 2644,
      "Ġdownload": 2645,
      "iny": 2646,
      "ator": 2647,
      "Ġcut": 2648,
      "Ġtoxic": 2649,
      "ĠRet": 2650,
      "ĠME": 2651,
      "ooks": 2652,
      "ational": 2653,
      "ipedia": 2654,
      "Ġquite": 2655,
      "ikipedia": 2656,
      "HA": 2657,
      "min": 2658,
      "ality": 2659,
      "Go": 2660,
      "vol": 2661,
      "Ġfant": 2662,
      "Ġ101": 2663,
      "Ġrunning": 2664,
      "Ph": 2665,
      "Ġverizon": 2666,
      "Ġtold": 2667,
      "icles": 2668,
      "Ġ54": 2669,
      "Ġpop": 2670,
      "Ġnear": 2671,
      "Ġrewards": 2672,
      "ssss": 2673,
      "Ġliving": 2674,
      "ĠLike": 2675,
      "iled": 2676,
      "ole": 2677,
      "Ġill": 2678,
      "As": 2679,
      "Ġpack": 2680,
      "ooo": 2681,
      "ooting": 2682,
      "ĠDon": 2683,
      "ulous": 2684,
      "Ġlisten": 2685,
      "Ġissue": 2686,
      "iece": 2687,
      "ION": 2688,
      "Well": 2689,
      "Ġcreed": 2690,
      "Ġ23": 2691,
      "ĠSee": 2692,
      "!!.": 2693,
      "ixer": 2694,
      "Ġaction": 2695,
      "uth": 2696,
      "irect": 2697,
      "Ġquick": 2698,
      "fort": 2699,
      "wikipedia": 2700,
      "Ġassassin": 2701,
      "Ġfre": 2702,
      "Ġfight": 2703,
      "ĠMar": 2704,
      "Ġloved": 2705,
      "Ġpoints": 2706,
      "mit": 2707,
      "inally": 2708,
      "Ġ71": 2709,
      "Ġ91": 2710,
      "Ġword": 2711,
      "Ġdev": 2712,
      "Ġgiving": 2713,
      "eeeeeeee": 2714,
      "Ġconnection": 2715,
      "GB": 2716,
      "lex": 2717,
      "vern": 2718,
      "Ġ111": 2719,
      "dd": 2720,
      "Ġ#": 2721,
      "Ġsuc": 2722,
      "Ġmovie": 2723,
      "top": 2724,
      "ouch": 2725,
      "Ġbc": 2726,
      "ĠPh": 2727,
      "ĠMore": 2728,
      "ĠMadden": 2729,
      "Ġ61": 2730,
      "Ġsupp": 2731,
      "Ðµ": 2732,
      "ung": 2733,
      "Ġgold": 2734,
      "Ġhappened": 2735,
      "Ġturn": 2736,
      "Ġversion": 2737,
      "DO": 2738,
      "Ġcap": 2739,
      "Ġemail": 2740,
      "ams": 2741,
      "Ġgoes": 2742,
      "Ġbuild": 2743,
      "Ġapps": 2744,
      "ails": 2745,
      "Ġearly": 2746,
      "Force": 2747,
      "eForce": 2748,
      "į.": 2749,
      "ero": 2750,
      "Ġsick": 2751,
      "Ġslow": 2752,
      "Ġbra": 2753,
      "Ġeff": 2754,
      "Ġtechn": 2755,
      "annel": 2756,
      "got": 2757,
      "ĠSm": 2758,
      "ĠGAME": 2759,
      "urn": 2760,
      "ailable": 2761,
      "Ġannounce": 2762,
      "gu": 2763,
      "Ġcer": 2764,
      "Ġsold": 2765,
      "200": 2766,
      "ĠNOT": 2767,
      "Ġcannot": 2768,
      "ĠUK": 2769,
      "ĠInter": 2770,
      "ivision": 2771,
      "Ġcompanies": 2772,
      "Man": 2773,
      "Ġfa": 2774,
      "Ġhang": 2775,
      "Ġhonestly": 2776,
      "Ġyesterday": 2777,
      "ĠAS": 2778,
      "ĠBE": 2779,
      "aper": 2780,
      "Ġcustomer": 2781,
      "Ġfamily": 2782,
      "reatest": 2783,
      "ILL": 2784,
      "On": 2785,
      "RA": 2786,
      "ived": 2787,
      "Ġdumb": 2788,
      "ene": 2789,
      "action": 2790,
      "une": 2791,
      "Ġprof": 2792,
      "ĠAssassins": 2793,
      "ĠOnline": 2794,
      "Ġcharacters": 2795,
      "FT": 2796,
      "Nice": 2797,
      "ky": 2798,
      "Ġesp": 2799,
      "ears": 2800,
      "Ġ104": 2801,
      "ĠLive": 2802,
      ",,,,": 2803,
      "Happy": 2804,
      "ĠAb": 2805,
      "Ġjump": 2806,
      "uba": 2807,
      "Ġtrial": 2808,
      "real": 2809,
      "Ġfore": 2810,
      "ecially": 2811,
      "iest": 2812,
      "urs": 2813,
      "ibly": 2814,
      "Not": 2815,
      "RhandlerR": 2816,
      "ced": 2817,
      "Ġtour": 2818,
      "Ġrandom": 2819,
      "Ġfeature": 2820,
      "One": 2821,
      "you": 2822,
      "Ġpc": 2823,
      "Ġeither": 2824,
      "......": 2825,
      "Ġlik": 2826,
      "Ġlonger": 2827,
      "????????????????": 2828,
      "Ġtotally": 2829,
      "Ġtired": 2830,
      "Ġlag": 2831,
      "amers": 2832,
      "EASPORTS": 2833,
      "formation": 2834,
      "?..": 2835,
      "Ġcour": 2836,
      "Ġhum": 2837,
      "Ġstand": 2838,
      "Ġtrailer": 2839,
      "ALL": 2840,
      "NT": 2841,
      "iot": 2842,
      "ĠTrump": 2843,
      "Ġeasy": 2844,
      "ĠWill": 2845,
      "Ġ3080": 2846,
      "Ġbitch": 2847,
      "Ġcrap": 2848,
      "Ġemplo": 2849,
      "Ġant": 2850,
      "Ġsong": 2851,
      "Ġ43": 2852,
      "Ġvideos": 2853,
      "Ġimpress": 2854,
      "oooooooooooooooooooooooooooooooo": 2855,
      "Ġclear": 2856,
      "Ġseriously": 2857,
      "ĠCheck": 2858,
      "ĠEn": 2859,
      "Ġpick": 2860,
      "ards": 2861,
      "Ġsurpr": 2862,
      "ubg": 2863,
      "Ġtrans": 2864,
      "Ġtruly": 2865,
      "Ġsounds": 2866,
      "ĠAny": 2867,
      "ĠFl": 2868,
      "Ġshort": 2869,
      "Ġweeks": 2870,
      "Ġkeeps": 2871,
      "Ġincredible": 2872,
      "LC": 2873,
      "OS": 2874,
      "fare": 2875,
      "Ġquest": 2876,
      "Ġthrow": 2877,
      "Ġob": 2878,
      "iculous": 2879,
      "Ġnumber": 2880,
      "Ġepic": 2881,
      "ĠBig": 2882,
      "ĠâĢĵ": 2883,
      "ultip": 2884,
      "Ġdecided": 2885,
      ",...": 2886,
      "BI": 2887,
      "OM": 2888,
      "dle": 2889,
      "eah": 2890,
      "fo": 2891,
      "mo": 2892,
      "ills": 2893,
      "eluba": 2894,
      "ried": 2895,
      "ized": 2896,
      "ANT": 2897,
      "anchise": 2898,
      "Ġoriginal": 2899,
      "fs": 2900,
      "Ġap": 2901,
      "Ġsec": 2902,
      "Ġmid": 2903,
      "Ġmicrosoft": 2904,
      "Ġdra": 2905,
      "ĠWell": 2906,
      "ĠRE": 2907,
      "Ġdeser": 2908,
      "ĠCOVID": 2909,
      "Ġtalking": 2910,
      "Ġbullshit": 2911,
      "Ġcamp": 2912,
      "Ġrecom": 2913,
      "Ġstay": 2914,
      "ĠOdyssey": 2915,
      "âĢ¦.": 2916,
      "imate": 2917,
      "Ġplat": 2918,
      "Ġlaws": 2919,
      "by": 2920,
      "vest": 2921,
      "Ġbas": 2922,
      "uter": 2923,
      "ĠAt": 2924,
      "ĠMon": 2925,
      "ession": 2926,
      "ron": 2927,
      "Ġfall": 2928,
      "ĠAre": 2929,
      "Ġready": 2930,
      "All": 2931,
      "ined": 2932,
      "reme": 2933,
      "ĠAchievement": 2934,
      "Ġwhite": 2935,
      "ights": 2936,
      "ĠNews": 2937,
      "Ġreleased": 2938,
      "Ġsuccess": 2939,
      "IE": 2940,
      "Ġdist": 2941,
      "Ġstud": 2942,
      "Ġ83": 2943,
      "ĠĠĠĠ": 2944,
      "Ġsafe": 2945,
      "Ġerror": 2946,
      "Ġhistory": 2947,
      "Ġgone": 2948,
      "Ġopp": 2949,
      "Ġlose": 2950,
      "Ġya": 2951,
      "igital": 2952,
      "Ġchat": 2953,
      "Is": 2954,
      "Now": 2955,
      "Ġsqu": 2956,
      "Ġ33": 2957,
      "ĠDay": 2958,
      "Ġprot": 2959,
      "ĠComp": 2960,
      "ĠFUCKING": 2961,
      "Love": 2962,
      "Tr": 2963,
      "nvidia": 2964,
      "ister": 2965,
      "Ġpri": 2966,
      "Ġhouse": 2967,
      "ĠBreak": 2968,
      "ĠUp": 2969,
      "new": 2970,
      "ĠâĢ¦\"": 2971,
      "Ġimpro": 2972,
      "OOOOOOOOOOOOOOOO": 2973,
      "Ġview": 2974,
      "Ġaf": 2975,
      "Ġcode": 2976,
      "ety": 2977,
      "Ġ113": 2978,
      "Ġdeath": 2979,
      "Ġclose": 2980,
      "ĠWho": 2981,
      "Ġstarting": 2982,
      "Ġbehind": 2983,
      "ii": 2984,
      "Ġty": 2985,
      "Ġbook": 2986,
      "Ġhold": 2987,
      "Ġlmao": 2988,
      "vert": 2989,
      "ĠMobile": 2990,
      "iend": 2991,
      "Ġalone": 2992,
      "Ġcomplain": 2993,
      "Ġproducts": 2994,
      "uit": 2995,
      "ren": 2996,
      "Ġside": 2997,
      "ĠNO": 2998,
      "rib": 2999,
      "ney": 3000,
      "gggg": 3001,
      "rs": 3002,
      "ories": 3003,
      "Ġbirthday": 3004,
      "Ġanim": 3005,
      "Ġ73": 3006,
      "Yo": 3007,
      "Ġdest": 3008,
      "ĠGPU": 3009,
      "ĠDis": 3010,
      "Ġorg": 3011,
      "ĠYOUR": 3012,
      "ĠExc": 3013,
      "Ġdelayed": 3014,
      "ÐµÐµ": 3015,
      "24": 3016,
      "96": 3017,
      "val": 3018,
      "ĠðŁ¥": 3019,
      "Ġsn": 3020,
      "Ġsearch": 3021,
      "uture": 3022,
      "Ġenjoyed": 3023,
      "GEGE": 3024,
      "Ġrecommend": 3025,
      "ba": 3026,
      "Ġtit": 3027,
      "ĠTV": 3028,
      "Ġmeans": 3029,
      "Ġ53": 3030,
      "FortniteGame": 3031,
      "ĠCanada": 3032,
      "magine": 3033,
      "AD": 3034,
      "MP": 3035,
      "Me": 3036,
      "Ok": 3037,
      "onav": 3038,
      "Ġ93": 3039,
      "Ġcontroller": 3040,
      "Ġsus": 3041,
      "Ġok": 3042,
      "acy": 3043,
      "ĠAfter": 3044,
      "ĠFI": 3045,
      "ĠOut": 3046,
      "ĠâĢĺ": 3047,
      "Ġespecially": 3048,
      "ze": 3049,
      "stant": 3050,
      "ants": 3051,
      "ĠPow": 3052,
      "ERS": 3053,
      "Ġupdates": 3054,
      "ĠOff": 3055,
      "aign": 3056,
      "bage": 3057,
      "cr": 3058,
      "Ġpain": 3059,
      "Ġ63": 3060,
      "assive": 3061,
      "Ġexact": 3062,
      "Warcraft": 3063,
      "othing": 3064,
      "Ġsex": 3065,
      "ĠApple": 3066,
      "Ġfantastic": 3067,
      "Ġtch": 3068,
      "Ġ103": 3069,
      "ĠâĢĿ": 3070,
      "ĠWarzone": 3071,
      "Ġthinking": 3072,
      "Ġdesign": 3073,
      "----": 3074,
      "Ġkids": 3075,
      "Ġfire": 3076,
      "Ġmist": 3077,
      "ĠLet": 3078,
      "Ġvis": 3079,
      "Ġchal": 3080,
      "Ġbetween": 3081,
      "Ġbiggest": 3082,
      "Ġproper": 3083,
      "ging": 3084,
      "Ġtest": 3085,
      "Ġcute": 3086,
      "ĠWindows": 3087,
      "ĠHave": 3088,
      "Ġincluding": 3089,
      "ĠFREE": 3090,
      "onavirus": 3091,
      "Ġtho": 3092,
      "esports": 3093,
      "ĠSum": 3094,
      "ĠGhost": 3095,
      "ĠHappy": 3096,
      "Ġfranchise": 3097,
      "PlayHearthstone": 3098,
      "Ġworks": 3099,
      "Ġphot": 3100,
      "Ġremove": 3101,
      "Ġschool": 3102,
      "Ġridiculous": 3103,
      "uh": 3104,
      "alm": 3105,
      "Ġforgot": 3106,
      "ĠAI": 3107,
      "ĠGold": 3108,
      "Ġleg": 3109,
      "ĠTHAT": 3110,
      "Ġoption": 3111,
      "Ġblood": 3112,
      "ĠSHIT": 3113,
      "Ġcancer": 3114,
      "amazon": 3115,
      "orn": 3116,
      "ĠTime": 3117,
      "Ġem": 3118,
      "ĠAN": 3119,
      "Ġweird": 3120,
      "Ġshows": 3121,
      "Ġglad": 3122,
      "UAUA": 3123,
      "ĠCommission": 3124,
      "ĠRetweet": 3125,
      "aps": 3126,
      "gy": 3127,
      "Ġwast": 3128,
      "Ġcross": 3129,
      "Ġgun": 3130,
      "thers": 3131,
      "Ġgotta": 3132,
      "Ġclaim": 3133,
      "ĠInc": 3134,
      "Ġstopped": 3135,
      "94": 3136,
      "97": 3137,
      "Every": 3138,
      "He": 3139,
      "NVIDIA": 3140,
      "fer": 3141,
      "pis": 3142,
      "set": 3143,
      "Ġgroup": 3144,
      "Ġmap": 3145,
      "coming": 3146,
      "ained": 3147,
      "Ġaren": 3148,
      "ĠUs": 3149,
      "Ġfeeling": 3150,
      "Ġdrive": 3151,
      "ensive": 3152,
      "bsite": 3153,
      "Ġracist": 3154,
      "LO": 3155,
      "Watch": 3156,
      "icult": 3157,
      "Ġreview": 3158,
      "ĠAd": 3159,
      "ohn": 3160,
      "emic": 3161,
      "Ġlau": 3162,
      "Ġhero": 3163,
      "Ġkills": 3164,
      "Ġgarbage": 3165,
      "Ġpossible": 3166,
      "nament": 3167,
      "back": 3168,
      "night": 3169,
      "erv": 3170,
      "Ġfil": 3171,
      "Ġgreatest": 3172,
      "oph": 3173,
      "Ġyourself": 3174,
      "Ex": 3175,
      "eal": 3176,
      "pro": 3177,
      "Ġoh": 3178,
      "CSGO": 3179,
      "Ġoffer": 3180,
      "ITH": 3181,
      "Ġproduct": 3182,
      "Ġlosing": 3183,
      "UR": 3184,
      "Ġtre": 3185,
      "Ġtakes": 3186,
      "Ġblock": 3187,
      "Ġmajor": 3188,
      "aring": 3189,
      "ĠLow": 3190,
      "ĠStore": 3191,
      "Ġbeta": 3192,
      "vernment": 3193,
      ")\"": 3194,
      "ivers": 3195,
      "wo": 3196,
      "Ġcred": 3197,
      "Ġyall": 3198,
      "verty": 3199,
      "ĠHere": 3200,
      "elt": 3201,
      "Ġpoverty": 3202,
      "26": 3203,
      "KE": 3204,
      "Ronnie": 3205,
      "con": 3206,
      "Ġfail": 3207,
      "Ġcou": 3208,
      "Ġcaus": 3209,
      "Ġdepot": 3210,
      "Ġint": 3211,
      "eck": 3212,
      "Ġjoke": 3213,
      "ĠEVER": 3214,
      "Ġpres": 3215,
      "udden": 3216,
      "Ġparticip": 3217,
      "Do": 3218,
      "oud": 3219,
      "Ġhearthstone": 3220,
      "\"\"\"": 3221,
      "Ġpoor": 3222,
      "Ġdisappointed": 3223,
      "PE": 3224,
      "awn": 3225,
      "oW": 3226,
      "Ġcuz": 3227,
      "ĠPer": 3228,
      "alla": 3229,
      "Ġtrust": 3230,
      "ĠLOVE": 3231,
      "Ġothers": 3232,
      "head": 3233,
      "ustr": 3234,
      "Ġrating": 3235,
      "ĠLIVE": 3236,
      "cover": 3237,
      "Ġsend": 3238,
      "Ġcustomers": 3239,
      "Ġperformance": 3240,
      "ĠBreakpoint": 3241,
      "att": 3242,
      "Ġstate": 3243,
      "ĠPl": 3244,
      "ĠIndia": 3245,
      "Ġavailable": 3246,
      "Ġcertain": 3247,
      "Ġlaugh": 3248,
      "NJ": 3249,
      "TV": 3250,
      "de": 3251,
      "off": 3252,
      "rup": 3253,
      "Ġâ": 3254,
      "atus": 3255,
      "Ġbox": 3256,
      "Ġboring": 3257,
      "Ġfour": 3258,
      "Ġfine": 3259,
      "Ġpiss": 3260,
      "Ġworked": 3261,
      "Ġscam": 3262,
      "UbisoftSupport": 3263,
      "Ġmedia": 3264,
      "Ġappreciate": 3265,
      ".,": 3266,
      "23": 3267,
      "UST": 3268,
      "cl": 3269,
      "cy": 3270,
      "Ġsense": 3271,
      "Ġwow": 3272,
      "Ġball": 3273,
      "Ġpand": 3274,
      "ĠWTF": 3275,
      "ĠOh": 3276,
      "They": 3277,
      "ished": 3278,
      "force": 3279,
      "Ġcouldn": 3280,
      "Ġkilling": 3281,
      "OH": 3282,
      "aving": 3283,
      "rr": 3284,
      "ĠEven": 3285,
      "just": 3286,
      "orant": 3287,
      "arget": 3288,
      "Ġdied": 3289,
      "aked": 3290,
      "Damn": 3291,
      "halla": 3292,
      "side": 3293,
      "Ġgave": 3294,
      "ides": 3295,
      "Ġallow": 3296,
      "Ġseem": 3297,
      "Ġforever": 3298,
      "Rockstar": 3299,
      "ech": 3300,
      "mf": 3301,
      "Ġult": 3302,
      "Ġstra": 3303,
      "ĠPre": 3304,
      "ĠWITH": 3305,
      "ĠVery": 3306,
      "Ġtournament": 3307,
      "af": 3308,
      "Ġaud": 3309,
      "Ġsudden": 3310,
      "Ġwomen": 3311,
      "leted": 3312,
      "Ġfuture": 3313,
      "ades": 3314,
      "ĠREA": 3315,
      "Ġmeet": 3316,
      "Ġshut": 3317,
      "anked": 3318,
      "Ġsetting": 3319,
      "ĠBlizzard": 3320,
      "After": 3321,
      "bc": 3322,
      "nn": 3323,
      "ley": 3324,
      "Ġfake": 3325,
      "Ġce": 3326,
      "Ġstock": 3327,
      "ĠPA": 3328,
      "ĠPart": 3329,
      "Ġ360": 3330,
      "Ġbuff": 3331,
      "Ġwants": 3332,
      "ĠStar": 3333,
      "Ġhappens": 3334,
      "Ġwinning": 3335,
      "Ġfavour": 3336,
      "Ġdetails": 3337,
      "end": 3338,
      "mg": 3339,
      "ison": 3340,
      "Ġmassive": 3341,
      "ĠInt": 3342,
      "Ġly": 3343,
      "Ġforget": 3344,
      "ĠCon": 3345,
      "ĠDem": 3346,
      "ĠDaily": 3347,
      "Ġcomputer": 3348,
      "Ġimport": 3349,
      "Ġcontinue": 3350,
      "Ġpurch": 3351,
      "PLE": 3352,
      "ners": 3353,
      "pm": 3354,
      "Ġain": 3355,
      "Ġboo": 3356,
      "Ġfoot": 3357,
      "Ġinformation": 3358,
      "eek": 3359,
      "ĠEpic": 3360,
      "ĠIts": 3361,
      "ðŁ¤£": 3362,
      "Ġgrind": 3363,
      "Ġinsane": 3364,
      "ĠNEW": 3365,
      "IP": 3366,
      "Ġmultip": 3367,
      "Ġshooting": 3368,
      "ĠĠĠčĊ": 3369,
      "Ġexplain": 3370,
      "ĠInst": 3371,
      "ampion": 3372,
      "away": 3373,
      "Ġcancel": 3374,
      "91": 3375,
      "MM": 3376,
      "mat": 3377,
      "Ġsite": 3378,
      "Ġplays": 3379,
      "There": 3380,
      "ody": 3381,
      "Ġspread": 3382,
      "Ġwins": 3383,
      "YYYY": 3384,
      "oe": 3385,
      "Ġsign": 3386,
      "ives": 3387,
      "Ġbeg": 3388,
      "Ġstuck": 3389,
      "key": 3390,
      ".\"\"\"": 3391,
      "Ġprogr": 3392,
      "Ġdem": 3393,
      "Ġquar": 3394,
      "Ġglitch": 3395,
      "Ġextreme": 3396,
      ",..": 3397,
      "ĠSou": 3398,
      "ĠMin": 3399,
      "Ġlock": 3400,
      "Ġsometimes": 3401,
      "ĠCOD": 3402,
      "friend": 3403,
      "Ġpowerful": 3404,
      "Ġstrong": 3405,
      "Ġmention": 3406,
      "based": 3407,
      "fuck": 3408,
      "Ġsweet": 3409,
      "roy": 3410,
      "roll": 3411,
      "board": 3412,
      "urity": 3413,
      "Ġwebsite": 3414,
      "ource": 3415,
      "ESS": 3416,
      "Ġaccounts": 3417,
      "ĠFrom": 3418,
      "viously": 3419,
      "Mb": 3420,
      "aff": 3421,
      "Ġcry": 3422,
      "Ġdate": 3423,
      "Ġnigg": 3424,
      "ĠCr": 3425,
      "ĠGu": 3426,
      "ĠHell": 3427,
      "ĠHigh": 3428,
      "Ġrow": 3429,
      "Ġdog": 3430,
      "Ġquit": 3431,
      "anger": 3432,
      "Ġbrother": 3433,
      "Ġarticle": 3434,
      "ĠUnit": 3435,
      "Ġcontrol": 3436,
      "ĠPLAY": 3437,
      "OME": 3438,
      "gress": 3439,
      "Ġsent": 3440,
      "Ġwear": 3441,
      "Ġpat": 3442,
      "Ġple": 3443,
      "ĠAC": 3444,
      "Off": 3445,
      "ecause": 3446,
      "ĠHope": 3447,
      "Ġround": 3448,
      "elves": 3449,
      "Ġteams": 3450,
      "DOTA": 3451,
      "MA": 3452,
      "ift": 3453,
      "Ġthr": 3454,
      "Ġpiece": 3455,
      "Ġreve": 3456,
      "ĠARE": 3457,
      "ĠGen": 3458,
      "Ġwasn": 3459,
      "Ġbugs": 3460,
      "Ġworkers": 3461,
      "ctivision": 3462,
      "Really": 3463,
      "yees": 3464,
      "Ġbattlefield": 3465,
      "EOPLE": 3466,
      "BILE": 3467,
      "Ġcouple": 3468,
      "Ġsat": 3469,
      "Ġdep": 3470,
      "Ġlie": 3471,
      "acked": 3472,
      "ĠNOW": 3473,
      "Ġchannel": 3474,
      "Ġspent": 3475,
      "Ġquality": 3476,
      "Ġdecision": 3477,
      "98": 3478,
      "hip": 3479,
      "la": 3480,
      "tw": 3481,
      "inst": 3482,
      "Ġthreat": 3483,
      "Ġlad": 3484,
      "Ġbeat": 3485,
      "ĠShe": 3486,
      "igure": 3487,
      "Ġshop": 3488,
      "Stream": 3489,
      "MyTEAM": 3490,
      "Ġraid": 3491,
      "bh": 3492,
      "joying": 3493,
      "land": 3494,
      "selves": 3495,
      "Ġwild": 3496,
      "Ġbased": 3497,
      "Ġhur": 3498,
      "Ġvi": 3499,
      "Ġconstant": 3500,
      "ĠâĢ¢.": 3501,
      "Ġsquad": 3502,
      "Congratulations": 3503,
      "Ind": 3504,
      "damn": 3505,
      "gust": 3506,
      "ret": 3507,
      "Ġpaper": 3508,
      "ĠCol": 3509,
      "ĠRead": 3510,
      "Ġloc": 3511,
      "Ġweap": 3512,
      "Ġactual": 3513,
      "Ġskins": 3514,
      "Ġdifficult": 3515,
      "Ġcampaign": 3516,
      "Ġpandemic": 3517,
      "27": 3518,
      "BC": 3519,
      "Ġcyberpunk": 3520,
      "Ġrema": 3521,
      "ĠMA": 3522,
      "iege": 3523,
      "Ġpicture": 3524,
      "ify": 3525,
      "Ġprocess": 3526,
      "Ġpress": 3527,
      "Ġscrew": 3528,
      "Ġredd": 3529,
      "Ġheard": 3530,
      "Ġillness": 3531,
      "FA": 3532,
      "UY": 3533,
      "tc": 3534,
      "rey": 3535,
      "Ġhands": 3536,
      "arm": 3537,
      "agic": 3538,
      "ucks": 3539,
      "Ġsave": 3540,
      "Ġresult": 3541,
      "Ġhyped": 3542,
      "58": 3543,
      "HS": 3544,
      "].": 3545,
      "Ġhop": 3546,
      "ĠGOO": 3547,
      "ĠStop": 3548,
      "views": 3549,
      "Ġroom": 3550,
      "Ġrecord": 3551,
      "ĠValhalla": 3552,
      "Ġdevelopers": 3553,
      "Ġstraight": 3554,
      "Ġimportant": 3555,
      "ium": 3556,
      "itive": 3557,
      "leg": 3558,
      "let": 3559,
      "Ġdou": 3560,
      "ĠRockstar": 3561,
      "ecting": 3562,
      "roid": 3563,
      "ĠLast": 3564,
      "Ġalong": 3565,
      "Ġsmh": 3566,
      "Ġtwice": 3567,
      "ĠCovid": 3568,
      "Ġcreated": 3569,
      "rd": 3570,
      "used": 3571,
      "ĠRep": 3572,
      "Ġwithin": 3573,
      "Ġshoot": 3574,
      "Ġrn": 3575,
      "Ġeng": 3576,
      "Ġfinal": 3577,
      "ĠWHAT": 3578,
      "Ġfavourite": 3579,
      ":..": 3580,
      "But": 3581,
      "GH": 3582,
      "See": 3583,
      "reet": 3584,
      "Ġ500": 3585,
      "Ġknows": 3586,
      "Ġsever": 3587,
      "Ġpls": 3588,
      "Ġbroke": 3589,
      "Ġemployees": 3590,
      "almart": 3591,
      "gry": 3592,
      "Ġaff": 3593,
      "ana": 3594,
      "any": 3595,
      "Ġpaid": 3596,
      "Ġcold": 3597,
      "asure": 3598,
      "Ġner": 3599,
      "ĠGaming": 3600,
      "Ġcomb": 3601,
      "rought": 3602,
      "Ġshitty": 3603,
      "Ġadvert": 3604,
      "ICE": 3605,
      "Ġcrashing": 3606,
      "Ġcourse": 3607,
      "Ġexactly": 3608,
      "ĠSummon": 3609,
      "ape": 3610,
      "iant": 3611,
      "tp": 3612,
      "yy": 3613,
      "Ġwall": 3614,
      "Ġmatter": 3615,
      "ĠBaby": 3616,
      "ĠDr": 3617,
      "ĠHal": 3618,
      "mak": 3619,
      "ilar": 3620,
      "iles": 3621,
      "ĠRedee": 3622,
      "Ġamount": 3623,
      "Ġmanag": 3624,
      "Ġoffic": 3625,
      "rug": 3626,
      "Ġsmart": 3627,
      "Ġcover": 3628,
      "aaaa": 3629,
      "pisode": 3630,
      "ĠSummoners": 3631,
      "93": 3632,
      "OP": 3633,
      "REA": 3634,
      "mar": 3635,
      "Ġ!": 3636,
      "Ġfast": 3637,
      "Ġcur": 3638,
      "arr": 3639,
      "Ġdream": 3640,
      "Ġow": 3641,
      "Ġ365": 3642,
      "ĠWoW": 3643,
      "ĠGET": 3644,
      "....\"": 3645,
      "Ġrather": 3646,
      "ĠStill": 3647,
      "ĠKeep": 3648,
      "Ġopin": 3649,
      "ruh": 3650,
      "Ġ]\"": 3651,
      "Ġcoronavirus": 3652,
      "games": 3653,
      "Ġmoments": 3654,
      "ĠHAVE": 3655,
      "28": 3656,
      "With": 3657,
      "Ġachieve": 3658,
      "ert": 3659,
      "lebr": 3660,
      "Ġfelt": 3661,
      "Ġgrow": 3662,
      "Ġgamer": 3663,
      "ĠTra": 3664,
      "ĠCity": 3665,
      "ĠPubg": 3666,
      "Ġ300": 3667,
      "ellent": 3668,
      "Ġdoll": 3669,
      "Ġvoice": 3670,
      "ĠâĢį.": 3671,
      "Ġofficial": 3672,
      "ORE": 3673,
      "ĠEASPORTS": 3674,
      "Ġmissing": 3675,
      "Ġinstall": 3676,
      "Ġtechnology": 3677,
      "Official": 3678,
      "Team": 3679,
      "cs": 3680,
      "leep": 3681,
      "Ġcod": 3682,
      ",\".": 3683,
      "ĠCAN": 3684,
      "ĠPEOPLE": 3685,
      "ĠDark": 3686,
      "Ġfrustr": 3687,
      "Ġupgr": 3688,
      "EAR": 3689,
      "Ġamz": 3690,
      "ĠStream": 3691,
      "Ġwouldn": 3692,
      "Ġpublic": 3693,
      "Ġrestart": 3694,
      "Today": 3695,
      "Hell": 3696,
      "Trump": 3697,
      "iam": 3698,
      "ume": 3699,
      "itic": 3700,
      "Ġbre": 3701,
      "osh": 3702,
      "Ġops": 3703,
      "Ġlight": 3704,
      "ading": 3705,
      "ĠGl": 3706,
      "Ġusers": 3707,
      "Ġkey": 3708,
      "Ġhelping": 3709,
      "like": 3710,
      "Ġcrashes": 3711,
      "uuuu": 3712,
      "Ġchanges": 3713,
      "Ġsimply": 3714,
      "down": 3715,
      "Ġbrand": 3716,
      "Ġbrought": 3717,
      "ĠTry": 3718,
      "ĠBL": 3719,
      "ief": 3720,
      "ĠVide": 3721,
      "Ġclips": 3722,
      "Ġexpect": 3723,
      "Ġteamm": 3724,
      "Ġshowing": 3725,
      "Ġlately": 3726,
      "Ġordered": 3727,
      "medi": 3728,
      "Ġedition": 3729,
      "Phone": 3730,
      "Ġsuddenly": 3731,
      "DS": 3732,
      "Fr": 3733,
      "nal": 3734,
      "itical": 3735,
      "Ġmom": 3736,
      "Ġdying": 3737,
      "Ġdude": 3738,
      "ĠNFL": 3739,
      "aptop": 3740,
      "ember": 3741,
      "alent": 3742,
      "ĠQu": 3743,
      "Ġboys": 3744,
      "Ġspecial": 3745,
      "ĠChinese": 3746,
      "29": 3747,
      "56": 3748,
      "GA": 3749,
      "IM": 3750,
      "IV": 3751,
      "SS": 3752,
      "uden": 3753,
      "inc": 3754,
      "Ġcost": 3755,
      "Ġmask": 3756,
      "ĠLo": 3757,
      "Ġdef": 3758,
      "Ġagree": 3759,
      "Ġuser": 3760,
      "tech": 3761,
      "Ġhappening": 3762,
      "ĠONE": 3763,
      "DR": 3764,
      "De": 3765,
      "do": 3766,
      "iver": 3767,
      "ina": 3768,
      "Ġfol": 3769,
      "Ġmic": 3770,
      "Ġdirect": 3771,
      "Ġoften": 3772,
      "Ġeas": 3773,
      "ĠDLC": 3774,
      "Ġsomehow": 3775,
      "Ġ2019": 3776,
      "ĠThese": 3777,
      "Ġfucked": 3778,
      "Ġwarcraft": 3779,
      "mmmm": 3780,
      "track": 3781,
      "Ġreceived": 3782,
      "DP": 3783,
      "Finally": 3784,
      "cle": 3785,
      "gon": 3786,
      "word": 3787,
      "resp": 3788,
      "News": 3789,
      "Ġgamers": 3790,
      ",\"\"": 3791,
      "ames": 3792,
      "ĠCont": 3793,
      "that": 3794,
      "ĠFPS": 3795,
      "ĠLE": 3796,
      "Ġ:)": 3797,
      "ĠWarfare": 3798,
      "Ġexclus": 3799,
      "oments": 3800,
      "Ġwonderful": 3801,
      "Ġcopy": 3802,
      "Ġsimple": 3803,
      "Ġnearly": 3804,
      "07": 3805,
      "ek": 3806,
      "yond": 3807,
      "onse": 3808,
      "arch": 3809,
      "asing": 3810,
      "ĠAm": 3811,
      "Ġangry": 3812,
      "atever": 3813,
      "Ġlooked": 3814,
      "Ġdisgust": 3815,
      "Ġrecently": 3816,
      "Ġconnect": 3817,
      "Ġconfir": 3818,
      "ĠAmerica": 3819,
      "ĠAmerican": 3820,
      "arently": 3821,
      "Very": 3822,
      "ening": 3823,
      "ĠSat": 3824,
      "ĠBet": 3825,
      "Ġsoft": 3826,
      "irty": 3827,
      "pend": 3828,
      "Ġvs": 3829,
      "Ġteach": 3830,
      "Ġinstagram": 3831,
      "ĠðŁ¤¦": 3832,
      "AAAA": 3833,
      "Blizzard": 3834,
      "ĠModern": 3835,
      "Ġplatform": 3836,
      "Ġprogram": 3837,
      "PT": 3838,
      "ho": 3839,
      "sports": 3840,
      "Ġans": 3841,
      "isf": 3842,
      "ĠAuto": 3843,
      "hel": 3844,
      "ĠWin": 3845,
      "ilver": 3846,
      "Ġeveryday": 3847,
      "Ġbug": 3848,
      "ĠKing": 3849,
      "Ġreading": 3850,
      "Ġmessage": 3851,
      "Ġpolice": 3852,
      "Ġcountry": 3853,
      "53": 3854,
      "TT": 3855,
      "best": 3856,
      "fm": 3857,
      "post": 3858,
      "Ġbur": 3859,
      "Ġport": 3860,
      "Ġcase": 3861,
      "Ġnorm": 3862,
      "Ġrequest": 3863,
      "!!\"": 3864,
      "Ġsales": 3865,
      "Ġquiz": 3866,
      "Ġcalls": 3867,
      "expl": 3868,
      "Holy": 3869,
      "vi": 3870,
      "Ġ,": 3871,
      "Ġ;": 3872,
      "Ġmis": 3873,
      "omin": 3874,
      "ases": 3875,
      "adio": 3876,
      "Ġbeyond": 3877,
      "Ġexcept": 3878,
      "Ġexpensive": 3879,
      "ĠOnly": 3880,
      "Ġturned": 3881,
      "Ġconsider": 3882,
      "Ġnetwork": 3883,
      "Ġimprove": 3884,
      "Ġfolks": 3885,
      "Sp": 3886,
      "por": 3887,
      "va": 3888,
      "Ġcre": 3889,
      "Ġ199": 3890,
      "Ġyoung": 3891,
      "iday": 3892,
      "ĠDown": 3893,
      "ĠiPhone": 3894,
      "ooking": 3895,
      "Ġadv": 3896,
      "Ġfeed": 3897,
      "Ġgiven": 3898,
      "Ġstores": 3899,
      "ĠToday": 3900,
      "MOBILE": 3901,
      "gendary": 3902,
      "51": 3903,
      "Sc": 3904,
      "ml": 3905,
      "Ġque": 3906,
      "Ġself": 3907,
      "Ġppl": 3908,
      "Ġmadden": 3909,
      "Ġlar": 3910,
      "asc": 3911,
      "ĠBy": 3912,
      "ĠFix": 3913,
      "ĠHey": 3914,
      "rouble": 3915,
      "Ġneeded": 3916,
      "Ġposted": 3917,
      "Ġinside": 3918,
      "Ġentering": 3919,
      "ACK": 3920,
      "BO": 3921,
      "Beluba": 3922,
      "face": 3923,
      "Ġwww": 3924,
      "ĠIm": 3925,
      "lying": 3926,
      "ĠAss": 3927,
      "ĠOver": 3928,
      "ĠUP": 3929,
      "CyberpunkGame": 3930,
      "ĠâĢĶ": 3931,
      "Ġdisconn": 3932,
      "lenge": 3933,
      "Ġswear": 3934,
      "Ġkicked": 3935,
      "57": 3936,
      "bl": 3937,
      "Ġtill": 3938,
      "Ġsig": 3939,
      "Ġwelcome": 3940,
      "Ġinvest": 3941,
      "ĠSony": 3942,
      "ĠCar": 3943,
      "Ġstuden": 3944,
      "ĠBEST": 3945,
      "Ġ1000": 3946,
      "ains": 3947,
      "ubs": 3948,
      "Ġfuckin": 3949,
      "Ġwatched": 3950,
      "Ġincre": 3951,
      "Ġadded": 3952,
      "Ġreported": 3953,
      "Ab": 3954,
      "Im": 3955,
      "Ġ%": 3956,
      "Ġtouch": 3957,
      "Ġfigure": 3958,
      "ises": 3959,
      "iction": 3960,
      "ĠSupport": 3961,
      "!!!.": 3962,
      "ĠWE": 3963,
      "ĠGlobal": 3964,
      "ĠOur": 3965,
      "urday": 3966,
      "ential": 3967,
      "olice": 3968,
      "Ġparty": 3969,
      "Ġgives": 3970,
      "RTs": 3971,
      "Ġassassins": 3972,
      "Ġbrain": 3973,
      "Ġansw": 3974,
      "Pro": 3975,
      "ux": 3976,
      "uation": 3977,
      "yle": 3978,
      "men": 3979,
      "Ġmer": 3980,
      "Ġmount": 3981,
      "Ġwhatever": 3982,
      "ĠGeForce": 3983,
      "ĠFirst": 3984,
      "irt": 3985,
      "PlayOverwatch": 3986,
      "Ġcomments": 3987,
      "Ġexist": 3988,
      "imin": 3989,
      "These": 3990,
      "rip": 3991,
      "gging": 3992,
      "Ġputting": 3993,
      "Ġresponse": 3994,
      "Ġextra": 3995,
      "Ġdelivery": 3996,
      "Ġhuman": 3997,
      "ĠVideo": 3998,
      ",[": 3999,
      "PC": 4000,
      "right": 4001,
      "Ġthous": 4002,
      "ites": 4003,
      "Ġsort": 4004,
      "Ġyes": 4005,
      "Ġones": 4006,
      "ĠAg": 4007,
      "Ġgovernment": 4008,
      "Ġclip": 4009,
      "Ġads": 4010,
      "ship": 4011,
      "Ġfully": 4012,
      "Ġconsoles": 4013,
      "?!?!": 4014,
      "Another": 4015,
      "Ġbasically": 4016,
      "Ġamzn": 4017,
      "explained": 4018,
      "Sm": 4019,
      "Ġpush": 4020,
      "otion": 4021,
      "Ġreach": 4022,
      "Ġ/...": 4023,
      "ĠAc": 4024,
      "ĠCase": 4025,
      "ĠRon": 4026,
      "ĠDes": 4027,
      "Ġlobb": 4028,
      "ipment": 4029,
      "uction": 4030,
      "Ġrock": 4031,
      "ounter": 4032,
      "Ġloading": 4033,
      "!!!!!!!!!!!!!!!!!!!!!!!!!!!!!!!!!!!!!!!!!!!!!!!!!!!!!!!!!!!!!!!!": 4034,
      "Ġextremely": 4035,
      "09": 4036,
      "Ġq": 4037,
      "intend": 4038,
      "Ġair": 4039,
      "Ġsim": 4040,
      "Ġblog": 4041,
      "Ġpark": 4042,
      "ĠALL": 4043,
      "hem": 4044,
      "ĠFe": 4045,
      "ĠFire": 4046,
      "\"\".": 4047,
      "ults": 4048,
      "istan": 4049,
      "Ġusually": 4050,
      "Ġscore": 4051,
      "ANK": 4052,
      "Ġdeck": 4053,
      "ĠMaybe": 4054,
      "Ġdeliver": 4055,
      "Ġmistake": 4056,
      "Ġseveral": 4057,
      "AC": 4058,
      "Co": 4059,
      "DE": 4060,
      "ces": 4061,
      "microsoft": 4062,
      "with": 4063,
      "Ġyeah": 4064,
      "unning": 4065,
      "outout": 4066,
      "ĠHomeDepot": 4067,
      "Ġupset": 4068,
      "ĠThen": 4069,
      "arely": 4070,
      "EASE": 4071,
      "Ġenjoying": 4072,
      "Ġsale": 4073,
      "Ġlearn": 4074,
      "Ġliked": 4075,
      "ĠPowder": 4076,
      "AB": 4077,
      "App": 4078,
      "Gu": 4079,
      "IR": 4080,
      "Yes": 4081,
      "ued": 4082,
      "vs": 4083,
      "Ġtowards": 4084,
      "Ġdope": 4085,
      "Ġdigital": 4086,
      "oman": 4087,
      "Ġinsp": 4088,
      "Ġhair": 4089,
      "ĠJohn": 4090,
      "Ġvict": 4091,
      "ĠPlayHearthstone": 4092,
      "Ġcalling": 4093,
      "Ġcommun": 4094,
      "Ġdamage": 4095,
      "fortun": 4096,
      "Ġfailed": 4097,
      "Ġopport": 4098,
      "54": 4099,
      "Got": 4100,
      "Hi": 4101,
      "dr": 4102,
      "gl": 4103,
      "google": 4104,
      "ris": 4105,
      "str": 4106,
      "adow": 4107,
      "uses": 4108,
      "ĠWow": 4109,
      "ustry": 4110,
      "ĠTheft": 4111,
      "Ġanywhere": 4112,
      "Who": 4113,
      "Ġgiveaway": 4114,
      "Ġimmedi": 4115,
      "ĠClass": 4116,
      "ĠPrime": 4117,
      "Ġpopular": 4118,
      "Ġsecurity": 4119,
      "ĠEVERY": 4120,
      "Ġopinion": 4121,
      "DA": 4122,
      "TR": 4123,
      "lt": 4124,
      "uits": 4125,
      "Ġfell": 4126,
      "Ġhar": 4127,
      "ĠAlex": 4128,
      "ĠCor": 4129,
      "ops": 4130,
      "comp": 4131,
      "earbox": 4132,
      "ĠEr": 4133,
      "Ġknowing": 4134,
      "Ġfixed": 4135,
      "Ġrealize": 4136,
      "Ġskill": 4137,
      "ĠðŁ¤£": 4138,
      "ĠDOTA": 4139,
      "ĠSeason": 4140,
      "Ġsupposed": 4141,
      "Ġanti": 4142,
      "Ġstudy": 4143,
      "ino": 4144,
      "Ġsum": 4145,
      "Ġbody": 4146,
      "ĠIII": 4147,
      "Ġyo": 4148,
      "layer": 4149,
      "Ġfront": 4150,
      "Ġcontact": 4151,
      "ĠReally": 4152,
      "lier": 4153,
      "Donald": 4154,
      "Ġdestroy": 4155,
      "Ġcelebr": 4156,
      "?...": 4157,
      "ga": 4158,
      "Ġcos": 4159,
      "Ġhi": 4160,
      "Ġstar": 4161,
      "ĠBan": 4162,
      "Ġima": 4163,
      "ĠHor": 4164,
      "els": 4165,
      "Ġoutside": 4166,
      "Ġroll": 4167,
      "ival": 4168,
      "-...": 4169,
      "EL": 4170,
      "eed": 4171,
      "Ġson": 4172,
      "Ġmixer": 4173,
      "unter": 4174,
      "ecraft": 4175,
      "irtu": 4176,
      "urder": 4177,
      "ries": 4178,
      "Ġclick": 4179,
      "Ġruns": 4180,
      "ĠQue": 4181,
      "Ġorgan": 4182,
      "Ġsoftware": 4183,
      "war": 4184,
      "wise": 4185,
      "Ġwalk": 4186,
      "ively": 4187,
      "Ġpull": 4188,
      "Ġcreate": 4189,
      "cho": 4190,
      "unt": 4191,
      "Ġmech": 4192,
      "illing": 4193,
      "ĠNice": 4194,
      "Ġacross": 4195,
      "umer": 4196,
      "emy": 4197,
      "Ġitself": 4198,
      "ansion": 4199,
      "LLY": 4200,
      "solutely": 4201,
      "Ġhorrible": 4202,
      "Ġbloody": 4203,
      "intendo": 4204,
      "TN": 4205,
      "dk": 4206,
      "gamer": 4207,
      "mers": 4208,
      "Ġbase": 4209,
      "Ġdaily": 4210,
      "ĠTop": 4211,
      "Ġequ": 4212,
      "amed": 4213,
      "unny": 4214,
      "ĠCH": 4215,
      "ĠCL": 4216,
      "ĠMoments": 4217,
      "boy": 4218,
      "Ġkn": 4219,
      "Ġgotten": 4220,
      "Ġblue": 4221,
      "venture": 4222,
      "unday": 4223,
      "Ġincredibly": 4224,
      "Ġfeatures": 4225,
      "ĠInstagram": 4226,
      "respect": 4227,
      "!.\"": 4228,
      "Let": 4229,
      "ales": 4230,
      "ians": 4231,
      "Ġapex": 4232,
      "orge": 4233,
      "Ġfur": 4234,
      "Ġcast": 4235,
      "Ġmother": 4236,
      "Ġmaster": 4237,
      "Ġinfo": 4238,
      "ĠTik": 4239,
      "idge": 4240,
      "ĠSk": 4241,
      "ushing": 4242,
      "ĠRes": 4243,
      "ĠGS": 4244,
      "acking": 4245,
      "Ġshame": 4246,
      "aker": 4247,
      "Ġanyway": 4248,
      "Ġinterest": 4249,
      "ĠCallofDuty": 4250,
      "ĠWHO": 4251,
      "Ġrespect": 4252,
      "Ġchanged": 4253,
      "ĠChrist": 4254,
      "Ġquickly": 4255,
      "GG": 4256,
      "Wtf": 4257,
      "can": 4258,
      "ges": 4259,
      "py": 4260,
      "rific": 4261,
      "leng": 4262,
      "Ġlaptop": 4263,
      "Ġform": 4264,
      "ĠSC": 4265,
      "ĠNove": 4266,
      "Ġloving": 4267,
      "ĠYu": 4268,
      "istic": 4269,
      "Ġhey": 4270,
      "ONT": 4271,
      "what": 4272,
      "Ġseconds": 4273,
      "ongrats": 4274,
      "ĠSaturday": 4275,
      "FF": 4276,
      "Twitch": 4277,
      "under": 4278,
      "vir": 4279,
      "Ġign": 4280,
      "atic": 4281,
      "Ġpaus": 4282,
      "ĠCA": 4283,
      "ĠPeople": 4284,
      "ĠFant": 4285,
      "Ġbud": 4286,
      "screed": 4287,
      "Ġsoundtrack": 4288,
      "ences": 4289,
      "Ġdrivers": 4290,
      "Ġrefund": 4291,
      "ĠInternet": 4292,
      "Ġfilm": 4293,
      "Mbps": 4294,
      "Ġsatisf": 4295,
      "08": 4296,
      "Com": 4297,
      "GeForce": 4298,
      "Mobile": 4299,
      "ka": 4300,
      "lish": 4301,
      "wesome": 4302,
      "Ġtreat": 4303,
      "arily": 4304,
      "Ġemb": 4305,
      "iding": 4306,
      "ĠPs": 4307,
      "ĠPay": 4308,
      "ĠBack": 4309,
      "ĠGot": 4310,
      "ĠMUT": 4311,
      "ĠHi": 4312,
      "oftware": 4313,
      "ifi": 4314,
      "Ġthemselves": 4315,
      "Ġplz": 4316,
      "ivity": 4317,
      "finity": 4318,
      "tention": 4319,
      "Ġmiddle": 4320,
      "Ġdraw": 4321,
      "Ġconstantly": 4322,
      "Ġdisgusting": 4323,
      "ĠCasey": 4324,
      ",âĢ": 4325,
      ">..": 4326,
      "Any": 4327,
      "FC": 4328,
      "Here": 4329,
      "Its": 4330,
      "SH": 4331,
      "eff": 4332,
      "gen": 4333,
      "vo": 4334,
      "zz": 4335,
      "stream": 4336,
      "Ġdark": 4337,
      "ĠNight": 4338,
      "Ġcomment": 4339,
      "ointing": 4340,
      "Ġdrops": 4341,
      "Ġgoddamn": 4342,
      "HAHA": 4343,
      "amsung": 4344,
      "ĠFIX": 4345,
      "ĠGOOD": 4346,
      "Amazing": 4347,
      "Big": 4348,
      "Pre": 4349,
      "national": 4350,
      "uo": 4351,
      "xbox": 4352,
      "Ġwit": 4353,
      "Ġll": 4354,
      "ĠWork": 4355,
      "ĠDM": 4356,
      "Ġ400": 4357,
      "Playing": 4358,
      "ents": 4359,
      "ĠVis": 4360,
      "elling": 4361,
      "450": 4362,
      "Ġcrime": 4363,
      "eye": 4364,
      "Ġcheating": 4365,
      "Ġtotal": 4366,
      "Ġreturn": 4367,
      "ĠEdge": 4368,
      "ĠÂ£": 4369,
      ",,,,,,,,": 4370,
      "ĠMonday": 4371,
      "Ġsnip": 4372,
      "Ġdemand": 4373,
      "God": 4374,
      "cu": 4375,
      "fios": 4376,
      "lin": 4377,
      "ran": 4378,
      "ya": 4379,
      "Ġtf": 4380,
      "Ġtrouble": 4381,
      "Ġbarely": 4382,
      "Ġpen": 4383,
      "Ġpot": 4384,
      "ĠII": 4385,
      "Ġ144": 4386,
      "iced": 4387,
      "ower": 4388,
      "Ġinvol": 4389,
      "ĠWOR": 4390,
      "ĠFinal": 4391,
      ".......": 4392,
      "202": 4393,
      "ateful": 4394,
      "Ġproject": 4395,
      "Ġprogress": 4396,
      "ums": 4397,
      "Ġawful": 4398,
      "ĠNever": 4399,
      "Ġdropped": 4400,
      "ĠExp": 4401,
      "Ġasked": 4402,
      "Ġsituation": 4403,
      "Ġparticular": 4404,
      "Ġmechan": 4405,
      "viron": 4406,
      "VP": 4407,
      "light": 4408,
      "Ġsports": 4409,
      "Ġpe": 4410,
      "ĠAmazing": 4411,
      "Ġsteam": 4412,
      "Ġsteal": 4413,
      "ĠDec": 4414,
      "berg": 4415,
      "odcast": 4416,
      "ĠPlaying": 4417,
      "shot": 4418,
      "Ġcareer": 4419,
      "itcher": 4420,
      "Ġdriving": 4421,
      "ĠAMD": 4422,
      "Ġitems": 4423,
      "Ġleader": 4424,
      "Ġsuspend": 4425,
      "Ġultimate": 4426,
      "Ġupgrade": 4427,
      "ĠNovember": 4428,
      "Dear": 4429,
      "RY": 4430,
      "date": 4431,
      "ew": 4432,
      "gn": 4433,
      "ience": 4434,
      "oom": 4435,
      "twitch": 4436,
      "Ġtick": 4437,
      "ators": 4438,
      "Ġsleep": 4439,
      "Ġwife": 4440,
      "ĠToo": 4441,
      "Ġetc": 4442,
      "Ġrequ": 4443,
      "ĠSwitch": 4444,
      "ecial": 4445,
      "rab": 4446,
      "raud": 4447,
      "ilt": 4448,
      "Ġweb": 4449,
      "icks": 4450,
      "Ġmission": 4451,
      "Ġreasons": 4452,
      "THE": 4453,
      "Ġregard": 4454,
      "mbers": 4455,
      "Ġlower": 4456,
      "eeeeeeeeeeeeeeee": 4457,
      "vironment": 4458,
      "Bro": 4459,
      "People": 4460,
      "bit": 4461,
      "han": 4462,
      "Ġtemp": 4463,
      "asks": 4464,
      "ĠTech": 4465,
      "Ġevil": 4466,
      "ĠAcc": 4467,
      "ĠWild": 4468,
      "ĠFollow": 4469,
      "illiant": 4470,
      "Ġ2016": 4471,
      "ified": 4472,
      "Ġeverywhere": 4473,
      "EAHelp": 4474,
      "ground": 4475,
      "ables": 4476,
      "Ġkept": 4477,
      "Ġmissed": 4478,
      "Ġposts": 4479,
      "Ġending": 4480,
      "Ġmodern": 4481,
      "Ġremind": 4482,
      "Ġfreaking": 4483,
      "????????????????????????????????": 4484,
      "ĠEnjoy": 4485,
      "Ġtitle": 4486,
      "Ġcertainly": 4487,
      "ĠRedeeming": 4488,
      "NE": 4489,
      "TX": 4490,
      "ray": 4491,
      "ĠLeagueOfLegends": 4492,
      "utter": 4493,
      "Ġgrand": 4494,
      "Ġdeep": 4495,
      "ĠRecon": 4496,
      "ĠHard": 4497,
      "ilities": 4498,
      "ĠUN": 4499,
      "abs": 4500,
      "Ġexpl": 4501,
      "Ġpaying": 4502,
      "Ġgrateful": 4503,
      "IGH": 4504,
      "ĠChina": 4505,
      "ssssssss": 4506,
      "Ġwords": 4507,
      "RockstarGames": 4508,
      "reyarch": 4509,
      "Ġanswer": 4510,
      "JE": 4511,
      "SO": 4512,
      "TER": 4513,
      "Ward": 4514,
      "ao": 4515,
      "Ġserious": 4516,
      "ounds": 4517,
      "Ġbar": 4518,
      "Ġfive": 4519,
      "Ġhon": 4520,
      "Ġglobal": 4521,
      "edu": 4522,
      "Ġdanger": 4523,
      "oof": 4524,
      "Ġnon": 4525,
      "ĠSE": 4526,
      "ĠStu": 4527,
      "ĠAB": 4528,
      "ĠDra": 4529,
      "Ġmet": 4530,
      "rage": 4531,
      "ĠLit": 4532,
      "Ġspace": 4533,
      "Ġmatches": 4534,
      "nov": 4535,
      "aught": 4536,
      "Ġaudio": 4537,
      "Ġthousands": 4538,
      "Se": 4539,
      "dom": 4540,
      "yout": 4541,
      "inning": 4542,
      "Ġabo": 4543,
      "Ġbill": 4544,
      "Ġmat": 4545,
      "osing": 4546,
      "ĠWon": 4547,
      "ĠWAR": 4548,
      "Ġmemor": 4549,
      "imb": 4550,
      "Ġmissions": 4551,
      "pril": 4552,
      "Ġ).": 4553,
      "Ġindustry": 4554,
      "uggest": 4555,
      "Ġeffort": 4556,
      "Ġimpressed": 4557,
      "oooooooooooooooooooooooooooooooooooooooooooooooooooooooooooooooo": 4558,
      "Ġlawsuit": 4559,
      "ÐµÐµÐµÐµ": 4560,
      "GEGEGEGE": 4561,
      ")..": 4562,
      "/âĢ¦": 4563,
      "Are": 4564,
      "IB": 4565,
      "KING": 4566,
      "UP": 4567,
      "vin": 4568,
      "Ġ...": 4569,
      "Ġbag": 4570,
      "Ġmine": 4571,
      "arn": 4572,
      "Ġlack": 4573,
      "Ġloss": 4574,
      "Ġloot": 4575,
      "ĠSer": 4576,
      "etic": 4577,
      "ĠBusiness": 4578,
      "ĠFree": 4579,
      "ĠMW": 4580,
      "Ġnegative": 4581,
      "ĠEX": 4582,
      "ĠEl": 4583,
      "Ġarea": 4584,
      "Ġdefe": 4585,
      "Ġdeleted": 4586,
      "Ġexcellent": 4587,
      "Ġspam": 4588,
      "Ġdecent": 4589,
      "Ġshowed": 4590,
      "Ġblow": 4591,
      "ample": 4592,
      "ibility": 4593,
      "Ġzomb": 4594,
      "Ġchallenge": 4595,
      "Ġcredit": 4596,
      "TO": 4597,
      "ract": 4598,
      "itor": 4599,
      "Ġband": 4600,
      "Ġbillion": 4601,
      "Ġbots": 4602,
      "Ġpure": 4603,
      "Ġhost": 4604,
      "arc": 4605,
      "ĠID": 4606,
      "antine": 4607,
      "ĠTR": 4608,
      "ĠRo": 4609,
      "ĠRec": 4610,
      "ĠFen": 4611,
      "ĠFall": 4612,
      "ĠFIN": 4613,
      "illy": 4614,
      "Ġsharing": 4615,
      "ances": 4616,
      "ĠOR": 4617,
      "http": 4618,
      "Ġknew": 4619,
      "Ġvib": 4620,
      "Ġprovid": 4621,
      "ĠNext": 4622,
      "ogue": 4623,
      "ĠEveryone": 4624,
      "Ġpriv": 4625,
      "Ġopportunity": 4626,
      "Ġabove": 4627,
      "-âĢ¦": 4628,
      "FX": 4629,
      "MG": 4630,
      "aur": 4631,
      "fit": 4632,
      "gly": 4633,
      "wow": 4634,
      "Ġtiny": 4635,
      "mes": 4636,
      "Ġcow": 4637,
      "Ġhel": 4638,
      "utch": 4639,
      "Ġdick": 4640,
      "icted": 4641,
      "ĠBecause": 4642,
      "ĠWas": 4643,
      "ĠGG": 4644,
      "Ġshock": 4645,
      "akistan": 4646,
      "izing": 4647,
      "Ġstreamer": 4648,
      "ĠShit": 4649,
      "ĠMyTEAM": 4650,
      "Ġreset": 4651,
      "ĠWHY": 4652,
      "ĠTrue": 4653,
      "Ġattack": 4654,
      "gggggggg": 4655,
      "Ġremoved": 4656,
      "ĠIntel": 4657,
      "Ġfootball": 4658,
      "yes": 4659,
      "Ġtv": 4660,
      "Ġtalent": 4661,
      "Ġthird": 4662,
      "ĠIns": 4663,
      "Ġreco": 4664,
      "ĠCongratulations": 4665,
      "ĠBirthday": 4666,
      "ĠRanked": 4667,
      "ĠHear": 4668,
      "ĠOUT": 4669,
      "Ġbecame": 4670,
      "Ġaccident": 4671,
      "Ġplus": 4672,
      "ĠAndroid": 4673,
      "Ġaddition": 4674,
      "Ġhigher": 4675,
      "fric": 4676,
      "Ġfollowers": 4677,
      "ĠEdition": 4678,
      "ahahahah": 4679,
      "Ġproperly": 4680,
      "ðŁ¤£ðŁ¤£": 4681,
      "finityWard": 4682,
      "!?": 4683,
      "02": 4684,
      "JNJ": 4685,
      "NS": 4686,
      "iet": 4687,
      "Ġwater": 4688,
      "Ġdirty": 4689,
      "ĠPass": 4690,
      "ĠHas": 4691,
      "ili": 4692,
      "Ġvio": 4693,
      "Ġ2018": 4694,
      "Ġchoice": 4695,
      "Ġexpected": 4696,
      "Ġsmoo": 4697,
      "Ġspeak": 4698,
      "Ġarticles": 4699,
      "Ġtelling": 4700,
      "Ġfollowing": 4701,
      "Ġentertain": 4702,
      "Ġdriver": 4703,
      "................................................................................................................................": 4704,
      "Ġclearly": 4705,
      "Ġobviously": 4706,
      "Ġpresent": 4707,
      "ĠMinecraft": 4708,
      "Ar": 4709,
      "HD": 4710,
      "Looks": 4711,
      "MS": 4712,
      "avid": 4713,
      "ona": 4714,
      "Ġben": 4715,
      "Ġfit": 4716,
      "ĠTI": 4717,
      "Ġepisode": 4718,
      "ĠSunday": 4719,
      "Ġstories": 4720,
      "ĠMet": 4721,
      "Ġthats": 4722,
      "Ġplaystation": 4723,
      "iring": 4724,
      "ancy": 4725,
      "ĠOp": 4726,
      "ĠEur": 4727,
      "iling": 4728,
      "OOK": 4729,
      "Ġexpansion": 4730,
      "Ġlives": 4731,
      "Ġearlier": 4732,
      "Ġrecent": 4733,
      "Ġidk": 4734,
      "Ġclassic": 4735,
      "Ġgeneration": 4736,
      "Ġchalleng": 4737,
      "UAUAUAUA": 4738,
      "ĠLowe": 4739,
      "Ġdollars": 4740,
      "fortunately": 4741,
      "CA": 4742,
      "ae": 4743,
      "gaming": 4744,
      "tim": 4745,
      "uing": 4746,
      "Ġboss": 4747,
      "Ġfal": 4748,
      "Ġpacks": 4749,
      "Ġht": 4750,
      "arry": 4751,
      "Ġinv": 4752,
      "ĠTake": 4753,
      "ĠBuy": 4754,
      "ĠWor": 4755,
      "ĠRhttp": 4756,
      "Ġmembers": 4757,
      "razy": 4758,
      "Ġuses": 4759,
      "822": 4760,
      "ĠChar": 4761,
      "Ġstarts": 4762,
      "Ġstops": 4763,
      "Ġupdated": 4764,
      "ĠShadow": 4765,
      "Ġbigger": 4766,
      "ROM": 4767,
      "Ġdisappointing": 4768,
      "amera": 4769,
      "Ġboyc": 4770,
      "Ġhype": 4771,
      "xxxx": 4772,
      "Ġactiv": 4773,
      "Ġeffect": 4774,
      "Ġreveal": 4775,
      "ĠRhttpR": 4776,
      "Had": 4777,
      "May": 4778,
      "Please": 4779,
      "oes": 4780,
      "Ġwn": 4781,
      "Ġpath": 4782,
      "Ġnba": 4783,
      "acle": 4784,
      "ĠSch": 4785,
      "ĠSur": 4786,
      "ĠAL": 4787,
      "using": 4788,
      "Ġjohnson": 4789,
      "Ġ800": 4790,
      "mpire": 4791,
      "Ġlil": 4792,
      "ĠJuly": 4793,
      "Ġupcoming": 4794,
      "777": 4795,
      "Ġvirus": 4796,
      "Ġhasn": 4797,
      "ĠUlt": 4798,
      "ireless": 4799,
      "Ġ:(": 4800,
      "123": 4801,
      "Ġpract": 4802,
      "690": 4803,
      "402": 4804,
      "Ġoper": 4805,
      "ITE": 4806,
      "Ġrespond": 4807,
      "Ġidiot": 4808,
      "haps": 4809,
      "Ġcompetitive": 4810,
      "Ġnormal": 4811,
      "ĠAgain": 4812,
      "AP": 4813,
      "Activision": 4814,
      "Fifa": 4815,
      "ICK": 4816,
      "Imagine": 4817,
      "een": 4818,
      "Ġsme": 4819,
      "Ġfair": 4820,
      "Ġmach": 4821,
      "enter": 4822,
      "âĢį.": 4823,
      "Ġstre": 4824,
      "ĠPlus": 4825,
      "ĠJoin": 4826,
      "ardian": 4827,
      "Ġdisrespect": 4828,
      "avi": 4829,
      "Ġbrilliant": 4830,
      "Ġcheat": 4831,
      "phone": 4832,
      "why": 4833,
      "Ġlearning": 4834,
      "Ġchildren": 4835,
      "ĠGolden": 4836,
      "Ġlegit": 4837,
      "ĠHalo": 4838,
      "Ġlobby": 4839,
      ".âĢĿ": 4840,
      "UL": 4841,
      "hood": 4842,
      "ij": 4843,
      "ring": 4844,
      "rop": 4845,
      "wood": 4846,
      "Ġsoooo": 4847,
      "Ġfool": 4848,
      "Ġcell": 4849,
      "Ġ120": 4850,
      "osition": 4851,
      "hest": 4852,
      "Ġstaff": 4853,
      "ĠBO": 4854,
      "ĠBR": 4855,
      "ĠWitcher": 4856,
      "ĠMO": 4857,
      "Ġsolo": 4858,
      "Ġrum": 4859,
      "assassin": 4860,
      "Ġ--": 4861,
      "Ġgoal": 4862,
      "asty": 4863,
      "Ġugly": 4864,
      "428": 4865,
      "Ġskills": 4866,
      "Ġended": 4867,
      "Ġsubsc": 4868,
      "Ġlucky": 4869,
      "Ġjoined": 4870,
      "Ġmodel": 4871,
      "Ġsurprise": 4872,
      "Ġlawsuits": 4873,
      "Ġsettings": 4874,
      "Ġpatient": 4875,
      "arrass": 4876,
      "irtual": 4877,
      "Ġhtml": 4878,
      "Mo": 4879,
      "MUT": 4880,
      "ael": 4881,
      "fDuty": 4882,
      "inder": 4883,
      "rect": 4884,
      "Ġmil": 4885,
      "Ġmurder": 4886,
      "ĠTW": 4887,
      "ĠSept": 4888,
      "ĠBad": 4889,
      "Ġjour": 4890,
      "ĠOW": 4891,
      "url": 4892,
      "ours": 4893,
      "Ġchampion": 4894,
      "102": 4895,
      "Ġplac": 4896,
      "share": 4897,
      "ĠShow": 4898,
      "ĠShould": 4899,
      "ocr": 4900,
      "ĠDoes": 4901,
      "ĠOrig": 4902,
      "Ġruined": 4903,
      "India": 4904,
      "Ġremaster": 4905,
      "making": 4906,
      "Ġofficially": 4907,
      "ELL": 4908,
      "mi": 4909,
      "pect": 4910,
      "test": 4911,
      "Ġahead": 4912,
      "Ġsuggest": 4913,
      "Ġbed": 4914,
      "Ġfear": 4915,
      "Ġfood": 4916,
      "Ġfund": 4917,
      "Ġcy": 4918,
      "Ġcoll": 4919,
      "uts": 4920,
      "Ġded": 4921,
      "verge": 4922,
      "Ġrev": 4923,
      "ĠWalmart": 4924,
      "ĠRP": 4925,
      "ĠMake": 4926,
      "Ġcomfort": 4927,
      "Ġvar": 4928,
      "Ġclub": 4929,
      "Ġdiscover": 4930,
      "852": 4931,
      "Ġassist": 4932,
      "Ġdesk": 4933,
      "Ġotherwise": 4934,
      "Ġmins": 4935,
      "ĠGameplay": 4936,
      "Ġcommer": 4937,
      "Ġtrain": 4938,
      "Ġopening": 4939,
      "ĠGOD": 4940,
      "ASS": 4941,
      "ĠFucking": 4942,
      "Ġhacked": 4943,
      "Ġimpressive": 4944,
      "Ġmultiple": 4945,
      "Ġweapons": 4946,
      "earboxOfficial": 4947,
      ".<": 4948,
      "Ad": 4949,
      "En": 4950,
      "More": 4951,
      "VIA": 4952,
      "home": 4953,
      "Ð¹": 4954,
      "Ġes": 4955,
      "Ġvid": 4956,
      "Ġcs": 4957,
      "ication": 4958,
      "Ġest": 4959,
      "Ġreviews": 4960,
      "ĠBRO": 4961,
      "ĠFA": 4962,
      "ĠFROM": 4963,
      "ĠDest": 4964,
      "Ġ1080": 4965,
      "ssist": 4966,
      "Ġ-.": 4967,
      "Ġweak": 4968,
      "arted": 4969,
      "Ġenvironment": 4970,
      "898": 4971,
      "Ġhimself": 4972,
      "Ġpersonal": 4973,
      "Ġhighly": 4974,
      "Ġcolor": 4975,
      "Ġhackers": 4976,
      "Ġattemp": 4977,
      "Ġsurprised": 4978,
      "OOOOOOOOOOOOOOOOOOOOOOOOOOOOOOOO": 4979,
      "Ġpissed": 4980,
      "Ġviol": 4981,
      "Ġfurther": 4982,
      "VIAssist": 4983,
      "Get": 4984,
      "Per": 4985,
      "__": 4986,
      "Ġtag": 4987,
      "Ġthread": 4988,
      "itions": 4989,
      "ĠIM": 4990,
      "Ġrepl": 4991,
      "ĠAtt": 4992,
      "ĠChe": 4993,
      "though": 4994,
      "ĠBeluba": 4995,
      "ĠWA": 4996,
      "ĠMusic": 4997,
      "uel": 4998,
      "Ġrate": 4999
    },
    "merges": [
      "Ġ t",
      "i n",
      "Ġ a",
      "e r",
      "o n",
      "Ġt h",
      "i t",
      "a t",
      "č Ċ",
      "r e",
      "v e",
      "Ġ s",
      "a n",
      ". .",
      "Ġ w",
      "l e",
      "o r",
      "a l",
      "o u",
      "Ġ b",
      "in g",
      "m e",
      "Ġ f",
      "i ve",
      "Ġth e",
      "i s",
      "n d",
      "Ġ p",
      "Ġ c",
      "N e",
      "Ġ h",
      "s t",
      "u t",
      "Ġ g",
      "Ġ m",
      "e d",
      "a r",
      "Ġ I",
      "Ġt o",
      "Ġ d",
      "a y",
      "o s",
      "Ġ 1",
      "Ġ o",
      "o m",
      "e n",
      "o o",
      "Ġ l",
      "i c",
      "o w",
      "a s",
      "e s",
      "o t",
      "Ġa nd",
      "Ġ n",
      "l l",
      "at ive",
      "g ative",
      "Ne gative",
      "a d",
      "Ġ y",
      "l y",
      "Ġ in",
      "os it",
      "Ġ @",
      "osit ive",
      "P ositive",
      "Ġo f",
      ", \"",
      "a c",
      "v er",
      "r al",
      "l d",
      "ut ral",
      "Ne utral",
      "c h",
      "an t",
      "l ay",
      "Ġb e",
      "Ġ is",
      "i on",
      "Ġ T",
      "Ġ e",
      "Ġ on",
      "Ġf or",
      "Ġ 2",
      "Ġy ou",
      "Ġ it",
      "a me",
      "â Ģ",
      "i d",
      "Ġ re",
      "Ġ S",
      "u n",
      "Ġ /",
      "f t",
      "Ġ A",
      "e t",
      "r re",
      "Ġ C",
      ".. .",
      "o me",
      "v ant",
      "h e",
      "le vant",
      "I rre",
      "Irre levant",
      "an d",
      "Ġs t",
      "Ġw h",
      "! !",
      "t h",
      "a m",
      ") ,",
      "Ġ P",
      "g e",
      "Ġ B",
      "Ġ 3",
      "u s",
      "Ġ W",
      "o p",
      "Ġth is",
      "Ġ R",
      "k e",
      "Ġ G",
      "n s",
      "Ġ F",
      "Ġ M",
      "Ġm y",
      "O f",
      "Ġ D",
      "on e",
      "al l",
      ".. ..",
      "i g",
      "Ġth at",
      "it h",
      "e c",
      "Ġg ame",
      "t er",
      "L e",
      "ou t",
      "c om",
      "nd s",
      "Ġ .",
      "i e",
      "Ġ me",
      "âĢ Ļ",
      "z on",
      "Ġh a",
      "Ġ i",
      "Ġ 4",
      "Ġw ith",
      "er i",
      "Ġ 5",
      "r a",
      "u p",
      "c k",
      "i ll",
      "u st",
      "Ġp lay",
      "e ar",
      "oo k",
      "n t",
      "e e",
      "Ġ1 0",
      "o h",
      "s s",
      "ac k",
      "r o",
      "a in",
      "Ġ j",
      "Ġ H",
      "m a",
      "Ġa n",
      "oh ns",
      "o st",
      "ohns on",
      "Ġs h",
      "Ġ 7",
      "Ġ 6",
      "Ġs o",
      "al ly",
      "or t",
      "i r",
      "t le",
      "Ġ 8",
      "Ġ 9",
      "' s",
      "Ġn e",
      "at ch",
      ". \"",
      "an c",
      "Ġ1 1",
      "u e",
      "Ġ r",
      "2 0",
      "Ġha ve",
      "y s",
      "m p",
      "it e",
      "a g",
      "at tle",
      "ut y",
      "d er",
      "at ion",
      "e p",
      "w it",
      "er e",
      "Ġ O",
      "Ġn ot",
      "o re",
      "Ġl i",
      "h t",
      "Ġ N",
      "i a",
      "ge nds",
      "ac e",
      "' t",
      "Ġ E",
      "er s",
      "un k",
      "Ġa re",
      "b o",
      "e l",
      "t ion",
      "u ck",
      "Ġd o",
      "v id",
      "Ġf r",
      "Le gends",
      "Ġb ut",
      "P lay",
      "at e",
      "Ġj ust",
      "o ft",
      "Ġw as",
      "Ġc om",
      "e ad",
      "p p",
      "u r",
      ", @",
      "D uty",
      "as s",
      "Ġa t",
      "Ġ -",
      "C all",
      "i l",
      "\" \"",
      "p e",
      "Ġ k",
      "Ġ L",
      "Ġg et",
      "Ġa ll",
      "Ġc an",
      "r os",
      "T he",
      "i x",
      "ver y",
      "C l",
      "b ook",
      "r ou",
      "Ġl o",
      "R ed",
      "B attle",
      "ace book",
      "ig ht",
      "bo x",
      "g le",
      "Ġ J",
      "T om",
      "u l",
      "Of Duty",
      "Call OfDuty",
      "Ġ out",
      "anc ys",
      "Cl ancys",
      "Tom Clancys",
      "Ġw or",
      "i me",
      "j ohnson",
      "b le",
      "or der",
      "d en",
      "s C",
      "Ġw e",
      "Ġp ic",
      "b er",
      "Ġs ome",
      "Ġ up",
      "n ow",
      "ar d",
      "Ġli ke",
      "Ġ1 2",
      "oo gle",
      "a k",
      "ic ros",
      "ma zon",
      "7 7",
      "en t",
      "icros oft",
      "T A",
      "p s",
      "and s",
      "oo d",
      "Ġg o",
      "Ġ le",
      "Ġa l",
      "ou r",
      "Ġa b",
      "ou ld",
      "X box",
      "Ġ V",
      "wit ter",
      "Ġ v",
      "o l",
      "w atch",
      "Ġ2 0",
      "ad den",
      "Ġc on",
      "Ġe x",
      "? ?",
      "Ġfr om",
      "a st",
      "Ġa s",
      "eri zon",
      "an k",
      "Ġyou r",
      "F L",
      "Ġa c",
      "ie ld",
      "ĠT h",
      "l ands",
      "ag ue",
      "s e",
      "ver watch",
      "ec on",
      "B A",
      "ar t",
      "u b",
      "c e",
      "order lands",
      "Ġc h",
      "e mp",
      "Ġ Y",
      "Ġt r",
      "f ield",
      "!! !!",
      "M adden",
      ".... ....",
      "N FL",
      "t t",
      "b ow",
      "ep ot",
      "n ite",
      "Madden NFL",
      "ra ft",
      "ain bow",
      "S t",
      "eri es",
      "i f",
      "I F",
      "st one",
      "l ack",
      "ĠT he",
      "Ġh as",
      "âĢ ¦",
      "h ost",
      "o ld",
      "U B",
      "vid ia",
      "pe x",
      "t witter",
      "emp tion",
      "th stone",
      "a re",
      "re ed",
      "IF A",
      "ear thstone",
      "us e",
      "Ġ U",
      "0 0",
      "UB G",
      "e ll",
      "is t",
      "in e",
      "Ġthe y",
      "Le ague",
      "Ġab out",
      "Ġ Ġ",
      "i m",
      "ass in",
      "Ġt ime",
      "Ġn ow",
      "T h",
      "Ġne w",
      "R econ",
      "host Recon",
      "N BA",
      "Ġf uck",
      "es s",
      "ot a",
      "' m",
      "G O",
      "ss assin",
      "Ġp ro",
      "ic e",
      "or ld",
      "R ainbow",
      "O O",
      "y ber",
      "A pex",
      "a ke",
      "Ġ or",
      "re at",
      "p unk",
      "t u",
      "as e",
      "yber punk",
      "ort nite",
      "Ġ &",
      "Ġw ill",
      "e st",
      "Ġg ood",
      "r and",
      "Ġlo ve",
      "c o",
      "Ġe very",
      "M icrosoft",
      "Ġs ee",
      "G hostRecon",
      "d ay",
      "Ġre ally",
      "V erizon",
      "p ort",
      "t ing",
      "P S",
      "Ġ (",
      "in d",
      "Ġd e",
      "op le",
      "e ople",
      "Ġa g",
      "E A",
      "Ġon e",
      "St ation",
      "u ch",
      "Ġwh en",
      "C S",
      "ve n",
      "Ġb y",
      "Ġ us",
      "Ġ _",
      "Ġm ore",
      "me nt",
      "H earthstone",
      "ĠI t",
      "u m",
      "Ġsh it",
      "on g",
      "W ar",
      "Ġan y",
      "Of Legends",
      "League OfLegends",
      "P UBG",
      "D epot",
      "F acebook",
      "ome Depot",
      "Ġ \"\"",
      "O verwatch",
      "F IFA",
      "A mazon",
      "F ortnite",
      "B orderlands",
      "Battle field",
      "ot h",
      "G oogle",
      "C yberpunk",
      "Ġh e",
      "i le",
      "Ġl ook",
      "Ġp eople",
      "a use",
      "N vidia",
      "Ġd on",
      "Ġb u",
      "ut o",
      "H omeDepot",
      "U n",
      "W orld",
      "o d",
      "D ota",
      "Ġwh o",
      "r i",
      "R D",
      "ay s",
      "B lack",
      "g rou",
      "Ġcom p",
      "it y",
      "Play Station",
      "Ġn o",
      "S ix",
      "Ġg ot",
      "Ġ âĢĻ",
      "Rainbow Six",
      "Ġbe en",
      "TomClancys RainbowSix",
      "l o",
      "sC old",
      "sCold War",
      "C raft",
      "op sColdWar",
      "CallOfDuty Black",
      "Apex Legends",
      "CallOfDutyBlack opsColdWar",
      "G TA",
      "Ġi f",
      "Of Craft",
      "World OfCraft",
      "Ġwh at",
      "a b",
      "le ase",
      "X s",
      "Ġh tt",
      ",\" @",
      "TomClancys GhostRecon",
      "oo oo",
      "A ssassin",
      "Ġt e",
      "20 77",
      "G rand",
      "s o",
      "Ġ un",
      "Xs eries",
      "Ġbe c",
      "grou nds",
      "in k",
      "k now",
      "Ġh ow",
      "Ġwor k",
      "Ġhtt ps",
      "A uto",
      "ft Auto",
      "The ftAuto",
      "Grand TheftAuto",
      "D ead",
      "Play er",
      "q u",
      "Un know",
      "Battle grounds",
      "ns Battlegrounds",
      "Player Unknow",
      "PlayerUnknow nsBattlegrounds",
      "RD R",
      "i re",
      "Red emption",
      "Red Dead",
      "RedDead Redemption",
      "ĠR ed",
      "sC reed",
      "Assassin sCreed",
      "Ġ en",
      "ec t",
      "re am",
      "g h",
      "Ġst ill",
      "l er",
      "3 0",
      "Ġg u",
      "f f",
      "ĠJ ohnson",
      "3 1",
      "ĠĠ čĊ",
      "Ġy ear",
      "ou s",
      "th ing",
      "o in",
      "wit ch",
      "i p",
      "n e",
      "Ġa m",
      "Ġm an",
      "h and",
      "Ġthe m",
      "u re",
      "I N",
      "Ġk now",
      "Ġag ain",
      "G ame",
      "Ġe ven",
      "Ġgame s",
      "hand ler",
      "ic k",
      "handler R",
      "v ing",
      "y ing",
      "Ġb ack",
      "t o",
      "Ġ u",
      "Ġw ant",
      "Ġo ver",
      "Ġc l",
      "Ġbec ause",
      "t s",
      "b e",
      "Ġac c",
      "ĠW h",
      "a p",
      "Ġplay ing",
      "ow n",
      "ĠS t",
      "1 9",
      "Ġ âĢ",
      "Ġof f",
      "ft er",
      "8 0",
      "i es",
      "Ġth ere",
      "Ġbe st",
      "Ġf un",
      "Ġp re",
      "Ġ :",
      "Ġw ould",
      "1 0",
      "Ġh ad",
      "Ġ K",
      "Ġs c",
      "ĠR handlerR",
      "Ġthe ir",
      "r y",
      "Ġs e",
      "! .",
      "Ġs a",
      "ĠW ar",
      "ir st",
      "u d",
      "e m",
      "n ing",
      "9 9",
      "is s",
      "Ġm uch",
      "Ġd id",
      "Ġg reat",
      "........ ........",
      "E R",
      "a it",
      "t v",
      "Ġs er",
      "Ġfuck ing",
      "Ġa d",
      "6 5",
      "ĠT H",
      "Th is",
      "Ġd is",
      "6 0",
      "a ge",
      "id e",
      "Ġb an",
      "i al",
      "up port",
      "Ġon ly",
      "a ble",
      "Ġgo ing",
      "Ġ our",
      "/ /",
      "4 4",
      "el p",
      "1 2",
      "is h",
      "i z",
      "vid e",
      ": //",
      "Ġp l",
      "Ġwh y",
      "Ġp r",
      "ou nt",
      "1 5",
      "w s",
      "Ġex c",
      "Ġs p",
      "Ġ Xbox",
      "3 5",
      "Ġm ake",
      "6 9",
      "3 2",
      "7 0",
      "4 5",
      "Ġth an",
      "ac t",
      "Ġit s",
      "8 5",
      "Ġcon t",
      "n a",
      "Ġw ait",
      "ad e",
      "ĠF acebook",
      "8 9",
      "Ġf irst",
      "ĠY ou",
      "as h",
      "Ġha pp",
      "w e",
      "ĠP lay",
      "a v",
      "Ġa fter",
      "!!!! !!!!",
      "Ġw on",
      "' ve",
      "4 0",
      "7 5",
      "8 2",
      "Ġth ink",
      "an s",
      "Ġm ost",
      "6 2",
      "p lay",
      "le d",
      "o y",
      "u c",
      "o b",
      "Ġth ing",
      "Ġex p",
      "n ed",
      "os e",
      "Ġne ed",
      "t e",
      "Ġ vide",
      "Ġst ream",
      "Ġb ad",
      "oth er",
      "Ġa pp",
      "3 9",
      "Ġf ix",
      "7 2",
      "f or",
      "re e",
      "Ġh ere",
      "4 9",
      "Ġto o",
      "4 2",
      "ank s",
      "o ve",
      "7 9",
      "Ġa w",
      "Ġte am",
      "ver s",
      "Ġs ay",
      "Ġf in",
      "Ġdo es",
      "ee l",
      "ĠA mazon",
      "Ġ $",
      "Ġto day",
      "Ġ X",
      "Ġe ver",
      "ĠC h",
      "s h",
      "Ġthe se",
      "1 6",
      "ĠP S",
      "Ġ3 0",
      "W h",
      "z ing",
      "O R",
      "O U",
      "Ġd ay",
      "Ġc r",
      "3 3",
      "1 8",
      "Ġplay er",
      "x t",
      "Ġbe t",
      "Ġ qu",
      "Ġ10 0",
      "ĠD ead",
      "ma zing",
      "... \"",
      "Ġ very",
      "Ġd own",
      "re ad",
      "ar k",
      "Ġw in",
      "?? ??",
      "as on",
      "Ġr ight",
      "E S",
      "ĠTh is",
      "an g",
      "ĠI n",
      "Ġ âĢ¦",
      "oo l",
      "Ġthe n",
      "ð Ł",
      "ĠM icrosoft",
      "ak ing",
      "Ġvide o",
      "Ġw atch",
      "ic h",
      "8 6",
      "Ġf eel",
      "5 0",
      "f e",
      "Ġl it",
      "Ġne ver",
      "anc e",
      "ub e",
      "ĠG oogle",
      "1 7",
      "Ġ ke",
      "Ġh elp",
      "g ht",
      "Ġac tu",
      "Ġp lease",
      "or y",
      "Ġget ting",
      "Ġal so",
      "OO OO",
      "at ed",
      "Ġo p",
      "a ve",
      "4 6",
      "ou nd",
      "u ll",
      "A N",
      "le s",
      "ĠB attle",
      "Ġin ter",
      "Ġbe ing",
      "am n",
      "3 6",
      "Ġt witch",
      "4 7",
      "8 7",
      "it ed",
      "th er",
      "! \"",
      "a h",
      "Ġin to",
      "l ine",
      "Ġst art",
      "1 1",
      "w ays",
      "Ġa ss",
      "Ġh is",
      "w ard",
      "ĠV erizon",
      "O N",
      "a pp",
      "Ġc ould",
      "f ul",
      "m s",
      "c raft",
      "IN G",
      "I t",
      "Ġp art",
      "s p",
      "Ġw ee",
      "ut e",
      "Ġl ast",
      "Ġ [",
      "Ġ Ne",
      "Ġf e",
      "Ġyou tu",
      "Ġst op",
      "oin t",
      "Ġplay ed",
      "g g",
      "5 9",
      "5 2",
      "ĠA nd",
      "e y",
      "Ġa r",
      "Ġg ive",
      "I D",
      "Ġl a",
      "r u",
      "op e",
      "3 7",
      "Ġa mazing",
      "Ġ čĊ",
      "ul t",
      "E D",
      "nd er",
      "Ġactu ally",
      "ĠE A",
      "Ġgu ys",
      "8 8",
      "ac h",
      "ĠG TA",
      "Ġup d",
      "Ġb it",
      "Ġc ome",
      "Ġp er",
      "ĠS h",
      "u rre",
      "ou gh",
      "ĠW e",
      "o g",
      "at ing",
      "Ġre al",
      "Ġh er",
      "Ġm ade",
      "Ġp h",
      "Ġd es",
      "Ġre d",
      "ĠBattle field",
      "Ġyear s",
      "Ġsh ould",
      "Ġb r",
      "9 0",
      "at h",
      "A T",
      "ĠRed emption",
      "Ġb ig",
      "L L",
      "o ck",
      "3 4",
      "Ġm on",
      "t a",
      "1 4",
      "Ġ20 20",
      "Ġm iss",
      "am ing",
      "oooo oooo",
      "el f",
      "c t",
      "Ġc are",
      "Ġd ec",
      "ĠR e",
      "Ġplay ers",
      "3 8",
      "6 6",
      "Ġevery one",
      "re d",
      "ou ght",
      "2 2",
      "ĠH ome",
      "Ġc all",
      "Ġs m",
      "M y",
      "Ġne xt",
      "Ġfr ie",
      "in ce",
      "i ld",
      "Ġc he",
      "Ġo ther",
      "is oft",
      "t y",
      "Ġsh ow",
      "C K",
      "al th",
      "o ll",
      "Ġh im",
      "Ġd r",
      "Ġal ways",
      "we et",
      "Ġw ere",
      "i o",
      "i ly",
      "ve l",
      "ĠTH E",
      "' re",
      "Ġs k",
      "n y",
      "ak es",
      "Ġt w",
      "Ġ1 5",
      "Ġv ia",
      "Ġlook s",
      "ĠD epot",
      "Ġin c",
      "Ġke ep",
      "ion s",
      "Ġb l",
      "one y",
      "ĠF IFA",
      "Ġ 0",
      "ĠB orderlands",
      "ie ve",
      "Ġs ame",
      "Ġsome thing",
      "Ġpro ble",
      "V E",
      "if a",
      "read y",
      "i k",
      "p h",
      "d y",
      "o f",
      "en s",
      "ig h",
      "b isoft",
      "is e",
      "I T",
      "k s",
      "a il",
      "r ow",
      "E E",
      "Ġl ong",
      "od e",
      "al y",
      "Ġ1 9",
      "ĠC an",
      "at es",
      "Ġw ay",
      "Ġwh ile",
      "Ġf av",
      "Ġbet ter",
      "Ġp ow",
      "Ġc ard",
      "ĠC S",
      "Ġwor ld",
      "Ġm in",
      "en ce",
      "!! !",
      "w n",
      "Ġl ive",
      "ĠG ame",
      "5 5",
      "ðŁ ¤",
      "Ġan other",
      "Ġch ar",
      "v ie",
      "or d",
      "ve nt",
      "Ġi mp",
      "ation s",
      "Ġ \"",
      "Ġal ready",
      "EA MaddenNFL",
      "Ġcom m",
      "n et",
      "f ore",
      "Ġm oney",
      "ic s",
      "Ġman y",
      "7 6",
      "am p",
      "re ss",
      "re ak",
      "1 3",
      "Ġ ro",
      "i v",
      "al k",
      "rou gh",
      "Ġser v",
      "8 4",
      "g et",
      "ĠM y",
      "ig n",
      "Ġh our",
      "ĠS o",
      "w h",
      "Ġwh ich",
      "Ġk ill",
      "Ġb ro",
      "9 2",
      "Ġbu y",
      "Y ou",
      "on s",
      "Ġs pe",
      "Ġh ear",
      "ar y",
      "Ġacc ount",
      "Ġ5 0",
      "I S",
      "L E",
      "Ġp ub",
      "t he",
      "up er",
      "Ġs ince",
      "Ġl ot",
      "as ed",
      "ĠP UBG",
      "Ġin st",
      "s ol",
      "Ġ x",
      "N D",
      "Ġh ate",
      "ĠY OU",
      "! ..",
      "Ġd amn",
      "................ ................",
      "ĠIt aly",
      "Ġs uch",
      "Ġexc ited",
      "Ġc ra",
      "Ġs upport",
      "Ġe ar",
      "Ġad d",
      "ĠS eries",
      "I A",
      "S o",
      "for m",
      "g o",
      "un ch",
      "Ġr un",
      "Ġcomp an",
      "Ġp ost",
      "? \"",
      ".. ...",
      "j oy",
      "on na",
      "Ġan n",
      "i ed",
      "Ġmon th",
      "Ġ4 0",
      "Ġi m",
      "Ġwe ll",
      "Ġhapp y",
      "V ID",
      "M E",
      "i b",
      "d uc",
      "Ġ Legends",
      "ĠO verwatch",
      "le ss",
      "Ġ <",
      "Ġst ore",
      "Ġ6 0",
      "Ġw ar",
      "Ġth rough",
      "Ġli fe",
      "i ble",
      "S upport",
      "Ġ use",
      "es ome",
      "Ġn ight",
      "tt y",
      "T S",
      "Ġd ead",
      "Ġnew s",
      "i ous",
      "t ed",
      "Ġf ree",
      "Ġupd ate",
      "Ġacc ess",
      "Ġbe fore",
      "ĠN o",
      "Ġhe alth",
      "re en",
      "Ġw r",
      "Ġdoes n",
      "l ow",
      "ĠC reed",
      "if f",
      "c c",
      "i an",
      "Ġd ays",
      "ĠC all",
      "u ff",
      "Ġ |",
      "Ġu nder",
      "ĠWar craft",
      "Ġh ard",
      "t f",
      "Ġ7 0",
      "Ġh ome",
      "9 5",
      "Ġd one",
      "Ġ2 1",
      "' ll",
      "7 4",
      "ab ly",
      "f in",
      "Ġt ake",
      "al s",
      "Ġdo ing",
      "sol ute",
      "or s",
      "l i",
      "Ġg onna",
      "Ġ =",
      "ĠB lack",
      "q ue",
      "Ġ8 0",
      "Ġ9 0",
      "!!!!!!!! !!!!!!!!",
      "p r",
      "J ohnson",
      "T ube",
      "in s",
      "os s",
      "ic al",
      ", .",
      "Ġtw o",
      "Ġe nd",
      "Ġ1 31",
      "z y",
      "Ġdid n",
      "Ġre c",
      "Ġha ving",
      "ab y",
      "Ġwh ere",
      "ĠC om",
      "rou nd",
      "ĠA ssassin",
      "Ġfor t",
      "le te",
      "Ġm ay",
      "ĠâĢ ľ",
      "Ġo ld",
      "h ing",
      "2 5",
      "ĠO n",
      "s elf",
      "Ġl ate",
      "ob ile",
      "m er",
      "p l",
      "Ġre ad",
      "Ġ ra",
      "or ite",
      "ĠWh y",
      "er ally",
      "g r",
      "up id",
      "Ġg oogle",
      "Ġsome one",
      "Ġtr ying",
      "Ġp ay",
      "ĠTh anks",
      "U N",
      "Ġh ell",
      "ĠH earthstone",
      "Ġg en",
      "Ġc ool",
      "Ġ League",
      "Ġthing s",
      "Ġt ra",
      "ĠT O",
      "a w",
      "oll ow",
      "Ġpre tty",
      "Ġar t",
      "port s",
      "Ġ1 30",
      "Ġfin ally",
      "in ess",
      "Ġen joy",
      "it ion",
      "Ġle t",
      "u es",
      "Ġs y",
      "Ġaw esome",
      "S T",
      "o k",
      "c i",
      "ne ws",
      "6 4",
      "Ġs uck",
      "ĠW orld",
      "o x",
      "Ġb oth",
      "Ġk ind",
      "Ġm aking",
      "ers on",
      "8 1",
      "Ġt er",
      "Ġto p",
      "i zon",
      "ĠA l",
      "Ġlook ing",
      "O T",
      "oo t",
      "a le",
      "Ġon line",
      "Ġ11 0",
      "est ing",
      "Ġre s",
      "Ġsa id",
      "Ġ20 77",
      "Ġg i",
      "ter s",
      "Ġfav orite",
      "Ġp ut",
      "U T",
      "b ably",
      "Ġ ]",
      "8 3",
      "Ġ )",
      "ĠP C",
      "m ost",
      "ĠC O",
      "Ġop en",
      "t ime",
      "ĠD uty",
      "Ġwee k",
      "Ġt ell",
      "an ge",
      "Ġm atch",
      "or k",
      "Ġ2 2",
      "6 7",
      "Ġd iff",
      "ĠU n",
      "un ity",
      "Ġ3 2",
      "ĠD e",
      "urre nt",
      "ic es",
      "e am",
      "Ġ Le",
      "I f",
      "ac c",
      "Ġser vers",
      "Ġf ind",
      "is ion",
      "on t",
      "ou n",
      "Ġgu y",
      "ĠWh at",
      "ĠI N",
      "ĠP lease",
      "Ġhour s",
      "at er",
      "us iness",
      "ire d",
      "Ġst upid",
      "Ġl ist",
      "Ġevery thing",
      "Ġ Z",
      "ve s",
      "ĠI f",
      "t en",
      "Ġc o",
      "ust om",
      "Ġf ull",
      "Ġproble m",
      "O W",
      "Ġm akes",
      "Ġh ope",
      "ĠN vidia",
      "Ġfort nite",
      "Ġ z",
      "Ġs ell",
      "Ġ2 5",
      "20 20",
      "A Y",
      "Ġth ose",
      "ver izon",
      "ee ee",
      "ĠB ut",
      "p ed",
      "u nd",
      "ĠTh at",
      "Ġwork ing",
      "Ġm o",
      "Ġ9 9",
      "Ġlo l",
      "n g",
      "on d",
      "Ġab solute",
      "Ġfe w",
      "Ġchar ac",
      "ment s",
      "Ġlit tle",
      "a ut",
      "t il",
      ", ,",
      "U CK",
      "âĢ Ŀ",
      "Ġo verwatch",
      ",\" \"\"",
      "Ġo wn",
      "ĠA ND",
      "Ġph one",
      "ĠR ainbow",
      "I L",
      "it ing",
      "es e",
      "Ġun til",
      "Ġagain st",
      "Ġlit erally",
      "m ber",
      "Ġs ure",
      "Ġf ar",
      "ĠU S",
      "Ġ ðŁ¤",
      "Ġis s",
      "Ġre m",
      "Ġcompan y",
      "Ġa round",
      "ĠB e",
      "Ġt on",
      "Ġs et",
      "Ġpro bably",
      "it s",
      "ill ion",
      "Ġhapp en",
      "Ġc urrent",
      "ĠThe y",
      "o c",
      "Ġa mazon",
      "Ġ2 4",
      "Ġ2 9",
      "Ġcon so",
      "? .",
      "d b",
      "Ġ order",
      "Ġwho le",
      "Ġs eries",
      "Ġe l",
      "Ġ5 2",
      "Ġ7 2",
      "Ġfrie nds",
      "me d",
      "ome nt",
      "ĠD E",
      "it ch",
      "Ġg l",
      "ĠT o",
      "ĠP ro",
      "Ġtr y",
      "R O",
      "n er",
      "Ġ *",
      "ing s",
      "Ġ3 5",
      "ĠO ne",
      "ĠN ow",
      "Ġre ason",
      "Ġr ank",
      "ward s",
      "Ġp erson",
      "Ġh igh",
      "al led",
      "Ġn ice",
      "ĠC l",
      "he ck",
      "Ġ8 2",
      "Ġtime s",
      "Ġpro duc",
      "Ġ Q",
      "Ġg r",
      "econ d",
      "Ġwor st",
      "ĠTh ank",
      "aut if",
      "f ect",
      "m m",
      "Ġb f",
      "Ġe vent",
      "Ġ11 2",
      "ĠO N",
      "Ġt ur",
      "Ġth ought",
      "ra ph",
      "VID IA",
      "Ġt alk",
      "Ġ9 2",
      "Ġcomp lete",
      "Ġth ank",
      "Ġ6 2",
      "Ġ10 2",
      "I C",
      "at s",
      "Ġserv ice",
      "S h",
      "p ic",
      "J ust",
      "ĠI S",
      "autif ul",
      "Ġ3 9",
      "ĠG O",
      "R E",
      "Ġc ar",
      "Ġany thing",
      "W e",
      "Ġc ustom",
      "Ġ5 9",
      "Ġ7 5",
      "Ġal most",
      "Ġse ason",
      "? !",
      "Ġf l",
      "Ġban ned",
      "Ġc or",
      "Ġte ch",
      "a a",
      "on n",
      "Ġnot hing",
      "00 0",
      "m or",
      "ow s",
      "ir l",
      "UN K",
      "Ġ4 5",
      "lo ck",
      "Ġf act",
      "Ġy et",
      "Ġla unch",
      "of Duty",
      "Ġ1 6",
      "Ġst uff",
      "OOOO OOOO",
      "m an",
      "ch ieve",
      "ĠEA MaddenNFL",
      "c tion",
      "f r",
      "Ġo cc",
      "ĠP r",
      "Ġdr op",
      "- -",
      "a x",
      "Ġ5 5",
      "???? ????",
      "b s",
      "Ġp s",
      "Ġcont ro",
      "or g",
      "er y",
      "ut es",
      "ĠN BA",
      "Ġs ad",
      "Ġst ory",
      "ĠB l",
      "ir d",
      "I n",
      "Ġ8 5",
      "Ġany one",
      "s go",
      "u mp",
      "es p",
      "Ġ7 9",
      "Ġle ague",
      "Ġpub g",
      "Ġton ight",
      "Ġ4 2",
      "Ġ6 9",
      "ĠE x",
      "ur ing",
      "Ġfin ish",
      "R e",
      "Ġ8 9",
      "Ġpow er",
      "S P",
      "Ġb aby",
      "Ġp o",
      "ĠF ortnite",
      "Ġf ollow",
      "Ġus ing",
      "Ġsc reen",
      "Ġ Of",
      "ĠH e",
      "Ġ6 5",
      "Ġs he",
      "Ġs econd",
      "Ġ9 5",
      "G E",
      "Ġb lack",
      "ĠW H",
      "ĠF UCK",
      "ĠO F",
      "um b",
      "Ġre sp",
      "Ġch ance",
      "oooooooo oooooooo",
      "Ġ id",
      "ĠI s",
      "Ġd uty",
      "Ġwith out",
      "Ġs l",
      "as y",
      "in al",
      "eri ous",
      "Ġus ed",
      "ĠCS GO",
      "U bisoft",
      "y e",
      "ri ble",
      "lo ad",
      "Ġs uper",
      "Ġ1 4",
      "Ġ11 9",
      "en se",
      "ge st",
      "Ġ10 9",
      "k en",
      "Ġ11 5",
      "ĠA ll",
      "ĠC o",
      "Ġcom ing",
      "ĠF or",
      "Ġ12 5",
      "Ġ12 9",
      "fin ite",
      "i ally",
      "t r",
      "ĠM e",
      "Ġcr ash",
      "st em",
      "Ġ4 9",
      "ep t",
      "Ġdis app",
      "app y",
      "Ġ +",
      "Ġl ost",
      "Ġ10 5",
      "T H",
      "h er",
      "ark et",
      "one st",
      "ĠN ot",
      "c ess",
      "n ess",
      "ĠD o",
      "Ġyou t",
      "g ame",
      "m on",
      "Ġs ays",
      "ĠJ ust",
      "st ation",
      "Ġ1 7",
      "Ġ ide",
      ") .",
      "Ġv acc",
      "Ġcon n",
      "Ġfrie nd",
      "o ying",
      "ĠS p",
      "ĠU bisoft",
      "t ain",
      "Ġin s",
      "ec tion",
      "Ġcomm unity",
      "h h",
      "Ġre st",
      "ĠA n",
      "Ġst r",
      "Ġexp eri",
      "Ġyout ube",
      ", <",
      "Ġm ove",
      "us h",
      "Ġw ent",
      "Ġg ta",
      "ic ial",
      "m y",
      "U S",
      "ol og",
      "V ER",
      "Y Y",
      "i ke",
      "us ic",
      "ĠF r",
      "Ġme an",
      "Ġmin utes",
      "F or",
      "Ġth anks",
      "Ġwor th",
      "Ġm or",
      "Ġre g",
      "Play Apex",
      "Ġre lease",
      "ĠYou Tube",
      "Ġdiff er",
      "ot s",
      "ĠO ps",
      "Ġen ough",
      "Ġcra zy",
      "Ġwr ong",
      "Ġf acebook",
      "Ġh it",
      "Ġn ame",
      "Ġche ck",
      "s c",
      "Ġb usiness",
      "Ġh al",
      "Ġl ine",
      "âĢ¦ \"",
      "b an",
      "Ġs ub",
      "am er",
      "Ġp oint",
      "ĠA pp",
      "i er",
      "r or",
      "or ry",
      "Ġl uck",
      "ĠS EE",
      "Ġaw ay",
      "Ġs ur",
      "Ġ ent",
      "Ġb attle",
      "st ar",
      "Ġcl ass",
      "Ġbe autiful",
      "vie w",
      "u u",
      "Ġ1 3",
      "are d",
      "c ial",
      "Ġdis c",
      "iz z",
      "ĠNe w",
      "6 3",
      "Ġin d",
      "Ġsy stem",
      "Ġconso le",
      "u ge",
      "ul ar",
      "urre d",
      "Ġ ..",
      "ros s",
      "Ġtr ash",
      "Th ank",
      "Ġwon der",
      "A R",
      "ĠG o",
      "Ġcont ent",
      "Ġocc urred",
      "Ġb reak",
      "ĠC old",
      "A S",
      "u g",
      "Ġ ed",
      "al c",
      "Ġfor ward",
      "Ġcon s",
      "Wh y",
      "e x",
      "ĠI T",
      "Ġj ob",
      "Ġinter esting",
      "Ġpow der",
      "6 1",
      "n ot",
      "r am",
      "w are",
      "Ġd l",
      "Ġd ue",
      "Ġle gends",
      "Ġh ead",
      "Ġp ass",
      "Ġg aming",
      "?? ?",
      "que st",
      "Ġ >",
      "Ġ1 8",
      "ĠR T",
      "tu re",
      "Ġag o",
      "E N",
      "Ġbro ken",
      "7 1",
      "Ġme ss",
      "ve d",
      "Ġc ol",
      "i ps",
      "Ġs ound",
      "l ic",
      "l ain",
      "Ġget s",
      "ak en",
      "finite ly",
      "Ġso on",
      "E T",
      "v r",
      "ig g",
      "ee p",
      "rou d",
      "Ġvacc ine",
      "at a",
      "i mp",
      "Ġa ble",
      "it al",
      "le n",
      "Ġf an",
      "Ġel se",
      "Ġm ode",
      "Ġf ifa",
      "Ġmy self",
      "ru mp",
      "4 3",
      "7 8",
      "Ġc ause",
      "Ġf ound",
      "Ġc sgo",
      "Ġ2 6",
      "ĠS H",
      "Ġinter net",
      "A L",
      "H ey",
      "OR TS",
      "4 1",
      "Ġc anc",
      "if ic",
      "Ġme d",
      "ear ch",
      "Ġk id",
      "IL S",
      "N o",
      "Ġm illion",
      "Call ofDuty",
      "o ke",
      "an e",
      "st and",
      "Ġb oy",
      "Ġc ant",
      "Ġre port",
      "Th at",
      "4 8",
      "Ġth ough",
      "ag es",
      "ong r",
      "SP ORTS",
      "l ud",
      "Ġm oment",
      "Ġann oun",
      "Ġ ve",
      "A M",
      "F uck",
      "] \"",
      "Ġf am",
      "il led",
      "Ġm ain",
      "ack s",
      "Ġgo d",
      "Ġcon f",
      "Ġsk in",
      "re ate",
      "Ġp ol",
      "ĠG hostRecon",
      "ĠH ow",
      "ĠL O",
      "ĠT witch",
      "Ġ2 8",
      "ast er",
      "Ġabsolute ly",
      "an na",
      "Ġb ought",
      "TA ILS",
      "ĠL ove",
      "Ġper fect",
      "time s",
      ": .",
      "Ġs ou",
      ".. \"",
      "ĠF ifa",
      "A A",
      "ou se",
      "me mber",
      "Ġlo ad",
      "ĠDE TAILS",
      "a ir",
      "Ġ8 6",
      "a j",
      "Ġdes p",
      "Ġh y",
      "ect ed",
      "n o",
      "ĠT r",
      "g s",
      "Ġw tf",
      "ĠS O",
      "Ġhave n",
      "ĠTH IS",
      "h a",
      "u al",
      "re w",
      "or m",
      "Ġ3 6",
      "if e",
      "Ġ ur",
      "on y",
      "Ġ7 6",
      "Ġpl ace",
      "> .",
      "Ġgame play",
      "e ver",
      "ma il",
      "Ġ20 0",
      "Ġmonth s",
      "l s",
      "ĠT witter",
      "ĠD ota",
      "1 00",
      "Ġb orderlands",
      "en c",
      "Ġwant ed",
      "7 3",
      "z one",
      "Ġm ight",
      "ĠO r",
      "Ġinst ead",
      "A nd",
      "a us",
      "Ġch ange",
      "Ġmor ning",
      "Ġt weet",
      "ĠV al",
      "ĠF uck",
      "E O",
      "m ore",
      "el i",
      "Ġsee ms",
      "Ġen ter",
      "mer ic",
      "Ġbe l",
      "Ġide a",
      "Ġd uring",
      "Ġre l",
      "Ġg irl",
      "iz e",
      "Ġent ire",
      "Ġto t",
      "bo dy",
      "EA M",
      "Ġsay ing",
      "Wh en",
      "Ġcome s",
      "w ork",
      "Ġc ame",
      "Ġg raph",
      "Ġis n",
      "id er",
      "Ġle vel",
      "l ing",
      "Ġc le",
      "Ġd ri",
      "Ġde lay",
      "Wh at",
      "Ġh ack",
      "Ġre t",
      "et s",
      "chieve ment",
      "a ily",
      "m b",
      "Ġs ing",
      "Ġ er",
      "ar s",
      "Ġto mor",
      "Ġ5 6",
      "Ġtomor row",
      "a z",
      "Ġas k",
      "Ġinc red",
      "W ow",
      "Ġd ie",
      ".\" \"",
      "Ġr ac",
      "Ġse en",
      "O h",
      "Ġc ount",
      "and om",
      "Ġr u",
      "Ġproble ms",
      "C H",
      "Ġs it",
      "Ġp atch",
      "ĠA meric",
      "ĠC yberpunk",
      "Ġch ang",
      "Ġcurrent ly",
      "Ġs up",
      "Ġb o",
      "Ġ11 8",
      "Ġex t",
      "Ġfeel s",
      "vel op",
      "Ġspe ed",
      "izz ard",
      "Ġserv ices",
      "am a",
      "Ġlate st",
      "st er",
      "ĠG ood",
      "Ġ11 6",
      "Ġtr ied",
      "Ġ vers",
      "Ġn vidia",
      "ĠD O",
      "Ġj oin",
      "Ġwatch ing",
      "onest ly",
      "Ġdiffer ent",
      "p ing",
      "w w",
      "ĠW atch",
      "ĠN VIDIA",
      "................................ ................................",
      "Ġter rible",
      "Ġrank ed",
      "an n",
      "Ġre f",
      "Ġre le",
      "Ġcharac ter",
      "Ġdl vr",
      "Ġc alled",
      "Ġl ink",
      "g er",
      "u ly",
      "Ġm arket",
      "ic ally",
      "Ġstart ed",
      "wh ere",
      "g ed",
      "u k",
      "Ġt aken",
      "Ġc reat",
      "Ġh and",
      "Ġ12 6",
      "Ġneed s",
      "Ġinc lud",
      "erious ly",
      "b b",
      "ĠA r",
      "Ġ3 1",
      "Ġdon t",
      "Ġbu ll",
      "ock star",
      "Ġunder stand",
      "Ġhal f",
      "ĠB est",
      "Ġ6 6",
      "ind ows",
      "Ġbr ing",
      "Ġon ce",
      "u z",
      "ĠA T",
      "ate ly",
      "est er",
      "2 1",
      "in t",
      "Ġs w",
      "Ġd ota",
      "Ġl os",
      "Ġ9 6",
      "ĠE very",
      "Ġbu ying",
      "Ġcont in",
      "Ġ '",
      "ðŁ ¥",
      "Ġcard s",
      "Ġsell ing",
      "C an",
      "ke nd",
      "Ġ4 6",
      "ent ly",
      "b al",
      "p oint",
      "ed ia",
      "Ġ3 7",
      "il er",
      "ud e",
      "p le",
      "v il",
      "at ure",
      "Ġf ace",
      "Ġh uge",
      "Ġ2 7",
      "Ġsh ot",
      "Ġat t",
      "Ġexperi ence",
      "I VE",
      "M O",
      "x x",
      "Ġh or",
      "Ġst ep",
      "ĠM ay",
      "Ġ10 6",
      "Ġm usic",
      "Ġi ft",
      "Ġle ss",
      "Ġmay be",
      "H ow",
      "b r",
      "as k",
      "ot t",
      "Ġbe h",
      "Ġ3 8",
      "ĠN E",
      "ĠPlay Station",
      "Ġred emption",
      "!!!!!!!!!!!!!!!! !!!!!!!!!!!!!!!!",
      "Ġcomplete ly",
      "Ġ9 8",
      "Ġtoo k",
      "H elp",
      "u y",
      "re ci",
      "id ent",
      "ull y",
      "A ME",
      "m ing",
      "Ġ5 7",
      "ir us",
      "Ġl ow",
      "ĠA pex",
      "Ġpr om",
      "Ġstream ing",
      "ss ey",
      "ir th",
      "Ġpr ice",
      "ĠP L",
      "Ġde finitely",
      "is m",
      "os ed",
      "ĠS c",
      "ĠM Y",
      "ma g",
      "Ġ7 8",
      "Ġ11 7",
      "ĠE d",
      "Ġde al",
      "iss ion",
      "sh it",
      "C heck",
      "ĠG rand",
      "Ġany more",
      "i ec",
      "Ġm obile",
      "Ġ4 7",
      "Ġ6 7",
      "dy ssey",
      "get her",
      "Ġso l",
      "irth day",
      "I G",
      "a u",
      "o ly",
      "at ul",
      "al d",
      "ĠG reat",
      "ĠM an",
      "Ġpr op",
      "C E",
      "o ice",
      "Ġ10 8",
      "Ġwor se",
      "ĠâĢ ¢",
      "L Y",
      "ot e",
      "' d",
      "a i",
      "f acebook",
      "Ġs ch",
      "Ġl ater",
      "th is",
      "Ġme n",
      "Ġ7 7",
      "Th anks",
      "I I",
      "S E",
      "Ġ8 8",
      "Ġdisapp oint",
      "olog y",
      "Ġp oin",
      "Ġd am",
      "ic le",
      "Ġn et",
      "Ġ9 4",
      "Ġ9 7",
      "Ġexc iting",
      "Ġwee kend",
      "c ast",
      "Ġc op",
      "Ġg ar",
      "Ġbe low",
      "ĠB r",
      "Ġ4 8",
      "L D",
      "Ġs imp",
      "Ġ3 4",
      "Ġr id",
      "6 8",
      "ĠI nd",
      "Ġto gether",
      "ith er",
      "Ġ12 7",
      "Ġspe nd",
      "U K",
      "c ome",
      "ĠA s",
      "play er",
      "R T",
      "Ġd eli",
      "Ġpart ic",
      "t on",
      "Ġa v",
      "Ġp oss",
      "Ġde velop",
      "A t",
      "Ġp ast",
      "ĠS T",
      "ore d",
      "ES T",
      "Ġgraph ics",
      "T F",
      "j ect",
      "l us",
      "om b",
      "Ġe mp",
      "ĠS ome",
      "ĠA M",
      "Ġ6 8",
      "Ġsee ing",
      "lo g",
      "Ġsing le",
      "B e",
      "G ood",
      "i ent",
      "Ġs orry",
      "Ġw anna",
      "ĠS e",
      "ome n",
      "Ġkind a",
      "w ay",
      "x ic",
      "Ġt alc",
      "is ed",
      "Ġit em",
      "Ġsh are",
      "play station",
      "Ġear ned",
      "Ġfinish ed",
      "Ġm ad",
      "Ġd et",
      "id ed",
      "Ġre p",
      "Ġ12 8",
      "Ġtr ue",
      "b all",
      "at ter",
      "is ing",
      "Ġ8 7",
      "Game s",
      "Ġiss ues",
      "A l",
      "f ully",
      "p t",
      "u ally",
      "Ġm od",
      "Ġd ata",
      "ĠG od",
      "ĠH A",
      "der n",
      "ĠE U",
      "ĠPlay Apex",
      "! ...",
      "Ġk ick",
      "Ġt witter",
      "an ch",
      "Ġp roud",
      "Ġre member",
      "us s",
      "ĠF OR",
      "Ġso cial",
      "Ġ11 4",
      "Ġlo g",
      "Ġle ave",
      "Ġapp reci",
      "P U",
      "f l",
      "Ġle ar",
      "Ġle ast",
      "Ġsuck s",
      "aj or",
      "ester day",
      "G reat",
      "v ious",
      "ut ion",
      "Ġle ft",
      "C h",
      "Ġw ish",
      "le ct",
      "or ing",
      "Ġp age",
      "Ġm ind",
      "ĠC ome",
      "ma o",
      "Ġ8 4",
      "Ġser ver",
      "Ġsm all",
      "U A",
      "i os",
      "ĠF R",
      "Ġ7 4",
      "ah ah",
      "Ġann oying",
      "atul ations",
      "T o",
      "ĠCh r",
      "me nd",
      "Ġgu ess",
      "in es",
      "on es",
      "Ġch ild",
      "um ber",
      "Ġsp ec",
      "ĠCom m",
      "Ġbel ieve",
      "Ġme nt",
      "Ġ5 8",
      "ist s",
      "lo bal",
      "Ġs witch",
      "Ġ10 7",
      "Ġle ad",
      "Ġx box",
      "P P",
      "n ame",
      "it ies",
      "le nt",
      "Ne w",
      "Ġ4 4",
      "Ġ6 4",
      "Ġ8 1",
      "we en",
      "Â ł",
      "ic t",
      "le ction",
      "Ġp ur",
      "ĠG et",
      "Ġac t",
      "B l",
      "in ing",
      "Ġor ig",
      "Ġcomp et",
      "Ġwait ing",
      "ath er",
      "You Tube",
      "Ġhear t",
      "A n",
      "h ow",
      "Ġ12 4",
      "Ġcon c",
      "te nd",
      "Ġper form",
      "G aming",
      "ĠWh en",
      "Ġpl an",
      "Ġdesp ite",
      "a im",
      "ast ic",
      "are nt",
      "onn ie",
      "Ġv al",
      "D on",
      "Ġm ust",
      "Ġfun ny",
      "ON E",
      "Ġgen er",
      "ĠAl so",
      "Ġcontro ll",
      "B est",
      "T EAM",
      "i pp",
      "re s",
      "ge nd",
      "el come",
      "il ity",
      "rou p",
      "Ġth ree",
      "ad a",
      "ĠT eam",
      "Ġk illed",
      "ĠY our",
      "a id",
      "Ġf ac",
      "Ġf ans",
      "Ġre ce",
      "Ġv ie",
      "ĠGame s",
      "ĠRT X",
      "S ome",
      "Ġh ot",
      "Ġe ach",
      "ĠW ith",
      "ag ram",
      "ist ory",
      "Ġgi ft",
      "ongr atulations",
      "Ġ Â",
      "ĠM o",
      "Ġ4 1",
      "ĠTh ere",
      "Ġbec ome",
      "ĠCh in",
      "C T",
      "p er",
      "y n",
      "Ġt aking",
      "ĠS uper",
      "Ġ5 1",
      "Ġsa w",
      "Ġdown load",
      "in y",
      "at or",
      "Ġc ut",
      "Ġto xic",
      "ĠR et",
      "ĠM E",
      "ook s",
      "ation al",
      "ip edia",
      "Ġqu ite",
      "ik ipedia",
      "H A",
      "m in",
      "al ity",
      "G o",
      "v ol",
      "Ġf ant",
      "Ġ10 1",
      "Ġrun ning",
      "P h",
      "Ġ verizon",
      "Ġto ld",
      "ic les",
      "Ġ5 4",
      "Ġp op",
      "Ġn ear",
      "Ġre wards",
      "ss ss",
      "Ġli ving",
      "ĠL ike",
      "ile d",
      "o le",
      "Ġi ll",
      "A s",
      "Ġp ack",
      "oo o",
      "oo ting",
      "ĠD on",
      "ul ous",
      "Ġlist en",
      "Ġiss ue",
      "iec e",
      "I ON",
      "W ell",
      "Ġc reed",
      "Ġ2 3",
      "ĠS ee",
      "!! .",
      "ix er",
      "Ġac tion",
      "ut h",
      "ire ct",
      "Ġqu ick",
      "f ort",
      "w ikipedia",
      "Ġa ssassin",
      "Ġf re",
      "Ġf ight",
      "ĠM ar",
      "Ġlove d",
      "Ġpoin ts",
      "m it",
      "in ally",
      "Ġ7 1",
      "Ġ9 1",
      "Ġwor d",
      "Ġde v",
      "Ġgi ving",
      "eeee eeee",
      "Ġconn ection",
      "G B",
      "le x",
      "ver n",
      "Ġ11 1",
      "d d",
      "Ġ #",
      "Ġs uc",
      "Ġmo vie",
      "t op",
      "ou ch",
      "Ġb c",
      "ĠP h",
      "ĠM ore",
      "ĠM adden",
      "Ġ6 1",
      "Ġsup p",
      "Ð µ",
      "un g",
      "Ġgo ld",
      "Ġhappen ed",
      "Ġtur n",
      "Ġvers ion",
      "D O",
      "Ġc ap",
      "Ġe mail",
      "am s",
      "Ġgo es",
      "Ġbu ild",
      "Ġapp s",
      "ail s",
      "Ġear ly",
      "For ce",
      "e Force",
      "į .",
      "er o",
      "Ġs ick",
      "Ġs low",
      "Ġb ra",
      "Ġe ff",
      "Ġtech n",
      "ann el",
      "g ot",
      "ĠS m",
      "ĠG AME",
      "ur n",
      "ail able",
      "Ġannoun ce",
      "g u",
      "Ġc er",
      "Ġso ld",
      "20 0",
      "ĠN OT",
      "Ġcan not",
      "ĠU K",
      "ĠIn ter",
      "iv ision",
      "Ġcompan ies",
      "M an",
      "Ġf a",
      "Ġh ang",
      "Ġh onestly",
      "Ġy esterday",
      "ĠA S",
      "ĠB E",
      "ap er",
      "Ġcustom er",
      "Ġfam ily",
      "reate st",
      "I LL",
      "O n",
      "R A",
      "ive d",
      "Ġd umb",
      "en e",
      "ac tion",
      "un e",
      "Ġpro f",
      "ĠAssassin s",
      "ĠOn line",
      "Ġcharac ters",
      "F T",
      "N ice",
      "k y",
      "Ġ esp",
      "ear s",
      "Ġ10 4",
      "ĠL ive",
      ",, ,,",
      "H appy",
      "ĠA b",
      "Ġj ump",
      "ub a",
      "Ġtr ial",
      "re al",
      "Ġf ore",
      "ec ially",
      "ie st",
      "ur s",
      "ib ly",
      "N ot",
      "R handlerR",
      "c ed",
      "Ġt our",
      "Ġr andom",
      "Ġfe ature",
      "O ne",
      "y ou",
      "Ġp c",
      "Ġe ither",
      ".... ..",
      "Ġli k",
      "Ġlong er",
      "???????? ????????",
      "Ġtot ally",
      "Ġt ired",
      "Ġl ag",
      "am ers",
      "EA SPORTS",
      "form ation",
      "? ..",
      "Ġc our",
      "Ġh um",
      "Ġst and",
      "Ġtra iler",
      "A LL",
      "N T",
      "i ot",
      "ĠT rump",
      "Ġe asy",
      "ĠW ill",
      "Ġ30 80",
      "Ġbit ch",
      "Ġcra p",
      "Ġemp lo",
      "Ġa nt",
      "Ġs ong",
      "Ġ4 3",
      "Ġvide os",
      "Ġimp ress",
      "oooooooooooooooo oooooooooooooooo",
      "Ġcle ar",
      "Ġs eriously",
      "ĠC heck",
      "ĠE n",
      "Ġpic k",
      "ard s",
      "Ġsur pr",
      "ub g",
      "Ġtr ans",
      "Ġtr uly",
      "Ġsou nds",
      "ĠA ny",
      "ĠF l",
      "Ġsh ort",
      "Ġwee ks",
      "Ġkeep s",
      "Ġincred ible",
      "L C",
      "O S",
      "f are",
      "Ġ quest",
      "Ġth row",
      "Ġo b",
      "ic ulous",
      "Ġn umber",
      "Ġe pic",
      "ĠB ig",
      "ĠâĢ ĵ",
      "ult ip",
      "Ġdec ided",
      ", ...",
      "B I",
      "O M",
      "d le",
      "e ah",
      "f o",
      "m o",
      "ill s",
      "el uba",
      "ri ed",
      "iz ed",
      "AN T",
      "anch ise",
      "Ġorig inal",
      "f s",
      "Ġa p",
      "Ġs ec",
      "Ġm id",
      "Ġm icrosoft",
      "Ġd ra",
      "ĠW ell",
      "ĠR E",
      "Ġdes er",
      "ĠCO VID",
      "Ġtalk ing",
      "Ġbull shit",
      "Ġc amp",
      "Ġre com",
      "Ġst ay",
      "ĠO dyssey",
      "âĢ¦ .",
      "im ate",
      "Ġpl at",
      "Ġla ws",
      "b y",
      "ve st",
      "Ġb as",
      "ut er",
      "ĠA t",
      "ĠM on",
      "ess ion",
      "r on",
      "Ġf all",
      "ĠA re",
      "Ġread y",
      "A ll",
      "in ed",
      "re me",
      "ĠA chievement",
      "Ġwh ite",
      "ight s",
      "ĠNe ws",
      "Ġrele ased",
      "Ġsuc cess",
      "I E",
      "Ġd ist",
      "Ġst ud",
      "Ġ8 3",
      "ĠĠ ĠĠ",
      "Ġsa fe",
      "Ġer ror",
      "Ġh istory",
      "Ġg one",
      "Ġo pp",
      "Ġl ose",
      "Ġy a",
      "ig ital",
      "Ġch at",
      "I s",
      "N ow",
      "Ġs qu",
      "Ġ3 3",
      "ĠD ay",
      "Ġpr ot",
      "ĠCom p",
      "ĠFUCK ING",
      "L ove",
      "T r",
      "n vidia",
      "is ter",
      "Ġp ri",
      "Ġh ouse",
      "ĠB reak",
      "ĠU p",
      "ne w",
      "ĠâĢ¦ \"",
      "Ġimp ro",
      "OOOOOOOO OOOOOOOO",
      "Ġvie w",
      "Ġa f",
      "Ġc ode",
      "et y",
      "Ġ11 3",
      "Ġde ath",
      "Ġcl ose",
      "ĠWh o",
      "Ġstart ing",
      "Ġbeh ind",
      "i i",
      "Ġt y",
      "Ġb ook",
      "Ġh old",
      "Ġl mao",
      "ver t",
      "ĠM obile",
      "ie nd",
      "Ġal one",
      "Ġcomp lain",
      "Ġproduc ts",
      "u it",
      "re n",
      "Ġs ide",
      "ĠN O",
      "ri b",
      "ne y",
      "gg gg",
      "r s",
      "or ies",
      "Ġb irthday",
      "Ġan im",
      "Ġ7 3",
      "Y o",
      "Ġd est",
      "ĠG PU",
      "ĠD is",
      "Ġor g",
      "ĠYOU R",
      "ĠEx c",
      "Ġdelay ed",
      "Ðµ Ðµ",
      "2 4",
      "9 6",
      "v al",
      "Ġ ðŁ¥",
      "Ġs n",
      "Ġs earch",
      "ut ure",
      "Ġenjoy ed",
      "GE GE",
      "Ġrecom mend",
      "b a",
      "Ġt it",
      "ĠT V",
      "Ġme ans",
      "Ġ5 3",
      "Fortnite Game",
      "ĠCan ada",
      "mag ine",
      "A D",
      "M P",
      "M e",
      "O k",
      "on av",
      "Ġ9 3",
      "Ġcontroll er",
      "Ġs us",
      "Ġo k",
      "ac y",
      "ĠA fter",
      "ĠF I",
      "ĠO ut",
      "ĠâĢ ĺ",
      "Ġesp ecially",
      "z e",
      "st ant",
      "ant s",
      "ĠP ow",
      "ER S",
      "Ġupd ates",
      "ĠOf f",
      "a ign",
      "b age",
      "c r",
      "Ġp ain",
      "Ġ6 3",
      "ass ive",
      "Ġex act",
      "War craft",
      "oth ing",
      "Ġse x",
      "ĠApp le",
      "Ġfant astic",
      "Ġt ch",
      "Ġ10 3",
      "ĠâĢ Ŀ",
      "ĠWar zone",
      "Ġthink ing",
      "Ġdes ign",
      "-- --",
      "Ġkid s",
      "Ġf ire",
      "Ġm ist",
      "ĠL et",
      "Ġv is",
      "Ġch al",
      "Ġbet ween",
      "Ġbig gest",
      "Ġprop er",
      "g ing",
      "Ġt est",
      "Ġc ute",
      "ĠW indows",
      "ĠH ave",
      "Ġinclud ing",
      "ĠFR EE",
      "onav irus",
      "Ġth o",
      "es ports",
      "ĠS um",
      "ĠG host",
      "ĠH appy",
      "Ġfr anchise",
      "Play Hearthstone",
      "Ġwork s",
      "Ġph ot",
      "Ġrem ove",
      "Ġsch ool",
      "Ġrid iculous",
      "u h",
      "al m",
      "Ġfor got",
      "ĠA I",
      "ĠG old",
      "Ġle g",
      "ĠTH AT",
      "Ġop tion",
      "Ġbl ood",
      "ĠSH IT",
      "Ġcanc er",
      "ama zon",
      "or n",
      "ĠT ime",
      "Ġe m",
      "ĠA N",
      "Ġwe ird",
      "Ġshow s",
      "Ġgl ad",
      "UA UA",
      "ĠComm ission",
      "ĠRet weet",
      "a ps",
      "g y",
      "Ġw ast",
      "Ġc ross",
      "Ġg un",
      "th ers",
      "Ġgot ta",
      "Ġcl aim",
      "ĠIn c",
      "Ġstop ped",
      "9 4",
      "9 7",
      "E very",
      "H e",
      "N VIDIA",
      "f er",
      "p is",
      "s et",
      "Ġg roup",
      "Ġm ap",
      "com ing",
      "ain ed",
      "Ġare n",
      "ĠU s",
      "Ġfeel ing",
      "Ġdr ive",
      "ens ive",
      "bs ite",
      "Ġrac ist",
      "L O",
      "W atch",
      "ic ult",
      "Ġre view",
      "ĠA d",
      "oh n",
      "em ic",
      "Ġla u",
      "Ġher o",
      "Ġkill s",
      "Ġgar bage",
      "Ġposs ible",
      "name nt",
      "b ack",
      "n ight",
      "er v",
      "Ġf il",
      "Ġg reatest",
      "op h",
      "Ġyour self",
      "E x",
      "e al",
      "p ro",
      "Ġo h",
      "CS GO",
      "Ġoff er",
      "IT H",
      "Ġproduc t",
      "Ġlos ing",
      "U R",
      "Ġt re",
      "Ġt akes",
      "Ġb lock",
      "Ġm ajor",
      "ar ing",
      "ĠL ow",
      "ĠSt ore",
      "Ġbet a",
      "vern ment",
      ") \"",
      "i vers",
      "w o",
      "Ġc red",
      "Ġy all",
      "ver ty",
      "ĠH ere",
      "el t",
      "Ġpo verty",
      "2 6",
      "K E",
      "R onnie",
      "c on",
      "Ġf ail",
      "Ġc ou",
      "Ġc aus",
      "Ġd epot",
      "Ġin t",
      "ec k",
      "Ġj oke",
      "ĠE VER",
      "Ġpre s",
      "ud den",
      "Ġpartic ip",
      "D o",
      "ou d",
      "Ġh earthstone",
      "\"\" \"",
      "Ġpo or",
      "Ġdisappoint ed",
      "P E",
      "a wn",
      "o W",
      "Ġc uz",
      "ĠP er",
      "all a",
      "Ġtr ust",
      "ĠLO VE",
      "Ġo thers",
      "he ad",
      "ust r",
      "Ġr ating",
      "ĠL IVE",
      "co ver",
      "Ġse nd",
      "Ġcustom ers",
      "Ġperform ance",
      "ĠBreak point",
      "at t",
      "Ġst ate",
      "ĠP l",
      "ĠInd ia",
      "Ġav ailable",
      "Ġcer tain",
      "Ġlau gh",
      "N J",
      "T V",
      "d e",
      "o ff",
      "r up",
      "Ġ â",
      "at us",
      "Ġb ox",
      "Ġb oring",
      "Ġf our",
      "Ġf ine",
      "Ġp iss",
      "Ġwork ed",
      "Ġsc am",
      "Ubisoft Support",
      "Ġmed ia",
      "Ġappreci ate",
      ". ,",
      "2 3",
      "U ST",
      "c l",
      "c y",
      "Ġs ense",
      "Ġw ow",
      "Ġb all",
      "Ġp and",
      "ĠW TF",
      "ĠO h",
      "The y",
      "ish ed",
      "for ce",
      "Ġcould n",
      "Ġkill ing",
      "O H",
      "a ving",
      "r r",
      "ĠE ven",
      "j ust",
      "or ant",
      "ar get",
      "Ġd ied",
      "ak ed",
      "D amn",
      "h alla",
      "s ide",
      "Ġg ave",
      "id es",
      "Ġall ow",
      "Ġsee m",
      "Ġfore ver",
      "R ockstar",
      "e ch",
      "m f",
      "Ġ ult",
      "Ġst ra",
      "ĠP re",
      "ĠW ITH",
      "ĠV ery",
      "Ġtour nament",
      "a f",
      "Ġa ud",
      "Ġs udden",
      "Ġw omen",
      "le ted",
      "Ġf uture",
      "ad es",
      "ĠR EA",
      "Ġme et",
      "Ġsh ut",
      "ank ed",
      "Ġset ting",
      "ĠBl izzard",
      "A fter",
      "b c",
      "n n",
      "le y",
      "Ġf ake",
      "Ġc e",
      "Ġst ock",
      "ĠP A",
      "ĠP art",
      "Ġ3 60",
      "Ġbu ff",
      "Ġwant s",
      "ĠSt ar",
      "Ġhapp ens",
      "Ġwin ning",
      "Ġfav our",
      "Ġdet ails",
      "e nd",
      "m g",
      "is on",
      "Ġm assive",
      "ĠI nt",
      "Ġl y",
      "Ġfor get",
      "ĠC on",
      "ĠD em",
      "ĠD aily",
      "Ġcomp uter",
      "Ġimp ort",
      "Ġcontin ue",
      "Ġpur ch",
      "P LE",
      "n ers",
      "p m",
      "Ġa in",
      "Ġb oo",
      "Ġf oot",
      "Ġin formation",
      "ee k",
      "ĠE pic",
      "ĠIt s",
      "ðŁ¤ £",
      "Ġgr ind",
      "Ġins ane",
      "ĠNE W",
      "I P",
      "Ġm ultip",
      "Ġsh ooting",
      "ĠĠ ĠčĊ",
      "Ġexp lain",
      "ĠIn st",
      "amp ion",
      "aw ay",
      "Ġcanc el",
      "9 1",
      "M M",
      "m at",
      "Ġs ite",
      "Ġplay s",
      "Th ere",
      "od y",
      "Ġsp read",
      "Ġwin s",
      "YY YY",
      "o e",
      "Ġs ign",
      "ive s",
      "Ġbe g",
      "Ġst uck",
      "ke y",
      ".\" \"\"",
      "Ġpro gr",
      "Ġde m",
      "Ġqu ar",
      "Ġgl itch",
      "Ġext reme",
      ", ..",
      "ĠS ou",
      "ĠM in",
      "Ġlo ck",
      "Ġsome times",
      "ĠCO D",
      "fr iend",
      "Ġpower ful",
      "Ġstr ong",
      "Ġment ion",
      "b ased",
      "f uck",
      "Ġs weet",
      "ro y",
      "ro ll",
      "bo ard",
      "ur ity",
      "Ġwe bsite",
      "our ce",
      "ES S",
      "Ġaccount s",
      "ĠFr om",
      "vious ly",
      "M b",
      "a ff",
      "Ġc ry",
      "Ġd ate",
      "Ġn igg",
      "ĠC r",
      "ĠG u",
      "ĠH ell",
      "ĠH igh",
      "Ġr ow",
      "Ġdo g",
      "Ġqu it",
      "ang er",
      "Ġbr other",
      "Ġart icle",
      "ĠUn it",
      "Ġcontro l",
      "ĠPL AY",
      "O ME",
      "g ress",
      "Ġs ent",
      "Ġw ear",
      "Ġp at",
      "Ġp le",
      "ĠA C",
      "Of f",
      "ec ause",
      "ĠH ope",
      "Ġr ound",
      "el ves",
      "Ġteam s",
      "DO TA",
      "M A",
      "i ft",
      "Ġth r",
      "Ġp iece",
      "Ġre ve",
      "ĠA RE",
      "ĠG en",
      "Ġwas n",
      "Ġbu gs",
      "Ġwork ers",
      "ct ivision",
      "Re ally",
      "ye es",
      "Ġbattle field",
      "EO PLE",
      "BI LE",
      "Ġcou ple",
      "Ġs at",
      "Ġd ep",
      "Ġl ie",
      "ack ed",
      "ĠN OW",
      "Ġch annel",
      "Ġsp ent",
      "Ġqu ality",
      "Ġdec ision",
      "9 8",
      "h ip",
      "l a",
      "t w",
      "in st",
      "Ġth reat",
      "Ġl ad",
      "Ġbe at",
      "ĠS he",
      "ig ure",
      "Ġsh op",
      "St ream",
      "My TEAM",
      "Ġra id",
      "b h",
      "j oying",
      "l and",
      "s elves",
      "Ġw ild",
      "Ġb ased",
      "Ġh ur",
      "Ġv i",
      "Ġcon stant",
      "ĠâĢ¢ .",
      "Ġsqu ad",
      "C ongratulations",
      "I nd",
      "d amn",
      "g ust",
      "re t",
      "Ġp aper",
      "ĠC ol",
      "ĠR ead",
      "Ġlo c",
      "Ġwe ap",
      "Ġactu al",
      "Ġsk ins",
      "Ġdiff icult",
      "Ġcamp aign",
      "Ġpand emic",
      "2 7",
      "B C",
      "Ġc yberpunk",
      "Ġre ma",
      "ĠM A",
      "ie ge",
      "Ġpic ture",
      "if y",
      "Ġpro cess",
      "Ġpre ss",
      "Ġsc rew",
      "Ġred d",
      "Ġhear d",
      "Ġill ness",
      "F A",
      "U Y",
      "t c",
      "re y",
      "Ġh ands",
      "ar m",
      "ag ic",
      "uck s",
      "Ġsa ve",
      "Ġres ult",
      "Ġhy ped",
      "5 8",
      "H S",
      "] .",
      "Ġh op",
      "ĠG OO",
      "ĠSt op",
      "vie ws",
      "Ġro om",
      "Ġrec ord",
      "ĠVal halla",
      "Ġdevelop ers",
      "Ġstra ight",
      "Ġimport ant",
      "i um",
      "it ive",
      "le g",
      "le t",
      "Ġd ou",
      "ĠR ockstar",
      "ec ting",
      "ro id",
      "ĠL ast",
      "Ġal ong",
      "Ġsm h",
      "Ġtw ice",
      "ĠCo vid",
      "Ġcreat ed",
      "r d",
      "us ed",
      "ĠR ep",
      "Ġwith in",
      "Ġsh oot",
      "Ġr n",
      "Ġen g",
      "Ġfin al",
      "ĠWH AT",
      "Ġfavour ite",
      ": ..",
      "B ut",
      "G H",
      "S ee",
      "re et",
      "Ġ5 00",
      "Ġknow s",
      "Ġse ver",
      "Ġpl s",
      "Ġbro ke",
      "Ġemplo yees",
      "alm art",
      "g ry",
      "Ġa ff",
      "an a",
      "an y",
      "Ġp aid",
      "Ġc old",
      "as ure",
      "Ġn er",
      "ĠG aming",
      "Ġcom b",
      "rou ght",
      "Ġshit ty",
      "Ġad vert",
      "IC E",
      "Ġcrash ing",
      "Ġcour se",
      "Ġexact ly",
      "ĠSum mon",
      "a pe",
      "i ant",
      "t p",
      "y y",
      "Ġw all",
      "Ġm atter",
      "ĠB aby",
      "ĠD r",
      "ĠH al",
      "ma k",
      "il ar",
      "ile s",
      "ĠRed ee",
      "Ġam ount",
      "Ġman ag",
      "Ġoff ic",
      "ru g",
      "Ġsm art",
      "Ġco ver",
      "aa aa",
      "pis ode",
      "ĠSummon ers",
      "9 3",
      "O P",
      "R EA",
      "m ar",
      "Ġ !",
      "Ġf ast",
      "Ġc ur",
      "ar r",
      "Ġd ream",
      "Ġo w",
      "Ġ3 65",
      "ĠW oW",
      "ĠG ET",
      ".... \"",
      "Ġr ather",
      "ĠSt ill",
      "ĠK eep",
      "Ġop in",
      "ru h",
      "Ġ] \"",
      "Ġcor onavirus",
      "game s",
      "Ġmoment s",
      "ĠHA VE",
      "2 8",
      "W ith",
      "Ġa chieve",
      "er t",
      "le br",
      "Ġf elt",
      "Ġg row",
      "Ġg amer",
      "ĠT ra",
      "ĠC ity",
      "ĠP ubg",
      "Ġ3 00",
      "el lent",
      "Ġdo ll",
      "Ġv oice",
      "ĠâĢ į.",
      "Ġoff icial",
      "OR E",
      "ĠEA SPORTS",
      "Ġmiss ing",
      "Ġinst all",
      "Ġtechn ology",
      "Off icial",
      "T eam",
      "c s",
      "le ep",
      "Ġc od",
      ",\" .",
      "ĠC AN",
      "ĠP EOPLE",
      "ĠD ark",
      "Ġfr ustr",
      "Ġup gr",
      "EA R",
      "Ġam z",
      "ĠSt ream",
      "Ġwould n",
      "Ġpub lic",
      "Ġrest art",
      "To day",
      "H ell",
      "T rump",
      "i am",
      "u me",
      "it ic",
      "Ġb re",
      "os h",
      "Ġo ps",
      "Ġl ight",
      "ad ing",
      "ĠG l",
      "Ġus ers",
      "Ġke y",
      "Ġhelp ing",
      "li ke",
      "Ġcrash es",
      "uu uu",
      "Ġchang es",
      "Ġsimp ly",
      "d own",
      "Ġb rand",
      "Ġb rought",
      "ĠT ry",
      "ĠB L",
      "ie f",
      "ĠV ide",
      "Ġcl ips",
      "Ġexp ect",
      "Ġteam m",
      "Ġshow ing",
      "Ġlate ly",
      "Ġorder ed",
      "med i",
      "Ġed ition",
      "Ph one",
      "Ġsudden ly",
      "D S",
      "F r",
      "n al",
      "it ical",
      "Ġm om",
      "Ġd ying",
      "Ġd ude",
      "ĠN FL",
      "ap top",
      "em ber",
      "ale nt",
      "ĠQ u",
      "Ġbo ys",
      "Ġspec ial",
      "ĠChin ese",
      "2 9",
      "5 6",
      "G A",
      "I M",
      "I V",
      "S S",
      "u den",
      "in c",
      "Ġc ost",
      "Ġm ask",
      "ĠL o",
      "Ġde f",
      "Ġag ree",
      "Ġus er",
      "te ch",
      "Ġhappen ing",
      "ĠON E",
      "D R",
      "D e",
      "d o",
      "i ver",
      "in a",
      "Ġf ol",
      "Ġm ic",
      "Ġd irect",
      "Ġof ten",
      "Ġe as",
      "ĠD LC",
      "Ġsome how",
      "Ġ20 19",
      "ĠTh ese",
      "Ġfuck ed",
      "Ġwar craft",
      "mm mm",
      "tr ack",
      "Ġrece ived",
      "D P",
      "F inally",
      "c le",
      "g on",
      "w ord",
      "re sp",
      "Ne ws",
      "Ġg amers",
      ",\" \"",
      "ame s",
      "ĠC ont",
      "th at",
      "ĠF PS",
      "ĠL E",
      "Ġ: )",
      "ĠWar fare",
      "Ġexc lus",
      "oment s",
      "Ġwonder ful",
      "Ġcop y",
      "Ġsimp le",
      "Ġnear ly",
      "0 7",
      "e k",
      "y ond",
      "on se",
      "ar ch",
      "as ing",
      "ĠA m",
      "Ġan gry",
      "ate ver",
      "Ġlook ed",
      "Ġdis gust",
      "Ġrec ently",
      "Ġconn ect",
      "Ġconf ir",
      "ĠAmeric a",
      "ĠAmeric an",
      "arent ly",
      "V ery",
      "en ing",
      "ĠS at",
      "ĠB et",
      "Ġso ft",
      "ir ty",
      "pe nd",
      "Ġv s",
      "Ġte ach",
      "Ġinst agram",
      "ĠðŁ¤ ¦",
      "AA AA",
      "Bl izzard",
      "ĠMo dern",
      "Ġplat form",
      "Ġprogr am",
      "P T",
      "h o",
      "s ports",
      "Ġa ns",
      "is f",
      "ĠA uto",
      "he l",
      "ĠW in",
      "il ver",
      "Ġevery day",
      "Ġbu g",
      "ĠK ing",
      "Ġread ing",
      "Ġmess age",
      "Ġpol ice",
      "Ġcount ry",
      "5 3",
      "T T",
      "b est",
      "f m",
      "p ost",
      "Ġb ur",
      "Ġp ort",
      "Ġc ase",
      "Ġn orm",
      "Ġre quest",
      "!! \"",
      "Ġsa les",
      "Ġqu iz",
      "Ġcall s",
      "ex pl",
      "H oly",
      "v i",
      "Ġ ,",
      "Ġ ;",
      "Ġm is",
      "om in",
      "as es",
      "ad io",
      "Ġbe yond",
      "Ġexc ept",
      "Ġexp ensive",
      "ĠOn ly",
      "Ġtur ned",
      "Ġcons ider",
      "Ġnet work",
      "Ġimpro ve",
      "Ġfol ks",
      "S p",
      "p or",
      "v a",
      "Ġc re",
      "Ġ1 99",
      "Ġyou ng",
      "id ay",
      "ĠD own",
      "Ġi Phone",
      "ook ing",
      "Ġad v",
      "Ġfe ed",
      "Ġgive n",
      "Ġstore s",
      "ĠTo day",
      "MO BILE",
      "gend ary",
      "5 1",
      "S c",
      "m l",
      "Ġ que",
      "Ġs elf",
      "Ġp pl",
      "Ġm adden",
      "Ġl ar",
      "as c",
      "ĠB y",
      "ĠF ix",
      "ĠH ey",
      "rou ble",
      "Ġneed ed",
      "Ġpost ed",
      "Ġins ide",
      "Ġenter ing",
      "A CK",
      "B O",
      "B eluba",
      "f ace",
      "Ġw ww",
      "ĠI m",
      "ly ing",
      "ĠA ss",
      "ĠO ver",
      "ĠU P",
      "Cyberpunk Game",
      "ĠâĢ Ķ",
      "Ġdisc onn",
      "len ge",
      "Ġsw ear",
      "Ġkick ed",
      "5 7",
      "b l",
      "Ġt ill",
      "Ġs ig",
      "Ġw elcome",
      "Ġin vest",
      "ĠS ony",
      "ĠC ar",
      "Ġst uden",
      "ĠB EST",
      "Ġ10 00",
      "ain s",
      "ub s",
      "Ġfuck in",
      "Ġwatch ed",
      "Ġinc re",
      "Ġadd ed",
      "Ġreport ed",
      "A b",
      "I m",
      "Ġ %",
      "Ġt ouch",
      "Ġf igure",
      "is es",
      "ic tion",
      "ĠS upport",
      "!! !.",
      "ĠW E",
      "ĠG lobal",
      "ĠO ur",
      "ur day",
      "ent ial",
      "ol ice",
      "Ġpart y",
      "Ġgive s",
      "RT s",
      "Ġassassin s",
      "Ġbra in",
      "Ġans w",
      "P ro",
      "u x",
      "u ation",
      "y le",
      "me n",
      "Ġm er",
      "Ġm ount",
      "Ġwh atever",
      "ĠG eForce",
      "ĠF irst",
      "ir t",
      "Play Overwatch",
      "Ġcom ments",
      "Ġex ist",
      "im in",
      "Th ese",
      "ri p",
      "gg ing",
      "Ġput ting",
      "Ġresp onse",
      "Ġext ra",
      "Ġdeli very",
      "Ġhum an",
      "ĠVide o",
      ", [",
      "P C",
      "r ight",
      "Ġth ous",
      "it es",
      "Ġs ort",
      "Ġy es",
      "Ġon es",
      "ĠA g",
      "Ġgo vernment",
      "Ġcl ip",
      "Ġad s",
      "sh ip",
      "Ġfull y",
      "Ġconso les",
      "?! ?!",
      "An other",
      "Ġbas ically",
      "Ġamz n",
      "expl ained",
      "S m",
      "Ġp ush",
      "ot ion",
      "Ġre ach",
      "Ġ/ ...",
      "ĠA c",
      "ĠC ase",
      "ĠR on",
      "ĠD es",
      "Ġlo bb",
      "ip ment",
      "uc tion",
      "Ġro ck",
      "oun ter",
      "Ġload ing",
      "!!!!!!!!!!!!!!!!!!!!!!!!!!!!!!!! !!!!!!!!!!!!!!!!!!!!!!!!!!!!!!!!",
      "Ġextreme ly",
      "0 9",
      "Ġ q",
      "in tend",
      "Ġa ir",
      "Ġs im",
      "Ġb log",
      "Ġp ark",
      "ĠA LL",
      "he m",
      "ĠF e",
      "ĠF ire",
      "\"\" .",
      "ul ts",
      "ist an",
      "Ġus ually",
      "Ġsc ore",
      "AN K",
      "Ġdec k",
      "ĠMay be",
      "Ġdeli ver",
      "Ġmist ake",
      "Ġsever al",
      "A C",
      "C o",
      "D E",
      "c es",
      "m icrosoft",
      "w ith",
      "Ġy eah",
      "un ning",
      "out out",
      "ĠH omeDepot",
      "Ġup set",
      "ĠTh en",
      "are ly",
      "EA SE",
      "Ġen joying",
      "Ġsa le",
      "Ġlear n",
      "Ġlik ed",
      "ĠPow der",
      "A B",
      "A pp",
      "G u",
      "I R",
      "Y es",
      "u ed",
      "v s",
      "Ġto wards",
      "Ġd ope",
      "Ġd igital",
      "om an",
      "Ġin sp",
      "Ġha ir",
      "ĠJ ohn",
      "Ġv ict",
      "ĠPlay Hearthstone",
      "Ġcall ing",
      "Ġcomm un",
      "Ġdam age",
      "fort un",
      "Ġfa iled",
      "Ġopp ort",
      "5 4",
      "G ot",
      "H i",
      "d r",
      "g l",
      "g oogle",
      "r is",
      "st r",
      "ad ow",
      "us es",
      "ĠW ow",
      "ust ry",
      "ĠThe ft",
      "Ġany where",
      "Wh o",
      "Ġgive away",
      "Ġim medi",
      "ĠCl ass",
      "ĠPr ime",
      "Ġpop ular",
      "Ġsec urity",
      "ĠEVER Y",
      "Ġopin ion",
      "D A",
      "T R",
      "l t",
      "u its",
      "Ġf ell",
      "Ġh ar",
      "ĠA lex",
      "ĠC or",
      "op s",
      "com p",
      "ear box",
      "ĠE r",
      "Ġknow ing",
      "Ġfix ed",
      "Ġreal ize",
      "Ġsk ill",
      "ĠðŁ¤ £",
      "ĠDO TA",
      "ĠSe ason",
      "Ġsupp osed",
      "Ġant i",
      "Ġstud y",
      "in o",
      "Ġs um",
      "Ġb ody",
      "ĠI II",
      "Ġy o",
      "lay er",
      "Ġfr ont",
      "Ġcont act",
      "ĠRe ally",
      "li er",
      "Don ald",
      "Ġdest roy",
      "Ġce lebr",
      "? ...",
      "g a",
      "Ġc os",
      "Ġh i",
      "Ġst ar",
      "ĠB an",
      "Ġi ma",
      "ĠH or",
      "el s",
      "Ġout side",
      "Ġro ll",
      "iv al",
      "- ...",
      "E L",
      "e ed",
      "Ġs on",
      "Ġm ixer",
      "un ter",
      "ec raft",
      "ir tu",
      "ur der",
      "ri es",
      "Ġcl ick",
      "Ġrun s",
      "ĠQ ue",
      "Ġorg an",
      "Ġsoft ware",
      "w ar",
      "w ise",
      "Ġw alk",
      "ive ly",
      "Ġp ull",
      "Ġc reate",
      "ch o",
      "un t",
      "Ġme ch",
      "ill ing",
      "ĠN ice",
      "Ġac ross",
      "um er",
      "em y",
      "Ġits elf",
      "ans ion",
      "LL Y",
      "solute ly",
      "Ġhor rible",
      "Ġblood y",
      "intend o",
      "T N",
      "d k",
      "g amer",
      "m ers",
      "Ġb ase",
      "Ġd aily",
      "ĠT op",
      "Ġe qu",
      "ame d",
      "un ny",
      "ĠC H",
      "ĠC L",
      "ĠM oments",
      "bo y",
      "Ġk n",
      "Ġgot ten",
      "Ġbl ue",
      "vent ure",
      "und ay",
      "Ġincred ibly",
      "Ġfeature s",
      "ĠInst agram",
      "resp ect",
      "! .\"",
      "L et",
      "a les",
      "i ans",
      "Ġa pex",
      "or ge",
      "Ġf ur",
      "Ġc ast",
      "Ġm other",
      "Ġm aster",
      "Ġin fo",
      "ĠT ik",
      "id ge",
      "ĠS k",
      "us hing",
      "ĠR es",
      "ĠG S",
      "ack ing",
      "Ġsh ame",
      "ak er",
      "Ġany way",
      "Ġinter est",
      "ĠCall ofDuty",
      "ĠWH O",
      "Ġresp ect",
      "Ġchang ed",
      "ĠChr ist",
      "Ġquick ly",
      "G G",
      "W tf",
      "c an",
      "g es",
      "p y",
      "r ific",
      "le ng",
      "Ġl aptop",
      "Ġfor m",
      "ĠS C",
      "ĠN ove",
      "Ġlo ving",
      "ĠY u",
      "ist ic",
      "Ġhe y",
      "ON T",
      "wh at",
      "Ġsecond s",
      "ongr ats",
      "ĠSat urday",
      "F F",
      "T witch",
      "u nder",
      "v ir",
      "Ġ ign",
      "at ic",
      "Ġp aus",
      "ĠC A",
      "ĠP eople",
      "ĠF ant",
      "Ġbu d",
      "sc reed",
      "Ġsound track",
      "enc es",
      "Ġdri vers",
      "Ġref und",
      "ĠInter net",
      "Ġfil m",
      "Mb ps",
      "Ġsat isf",
      "0 8",
      "C om",
      "G eForce",
      "M obile",
      "k a",
      "l ish",
      "w esome",
      "Ġt reat",
      "ar ily",
      "Ġe mb",
      "id ing",
      "ĠP s",
      "ĠP ay",
      "ĠB ack",
      "ĠG ot",
      "ĠM UT",
      "ĠH i",
      "oft ware",
      "if i",
      "Ġthem selves",
      "Ġpl z",
      "iv ity",
      "fin ity",
      "ten tion",
      "Ġmid dle",
      "Ġdra w",
      "Ġconstant ly",
      "Ġdisgust ing",
      "ĠCase y",
      ", âĢ",
      "> ..",
      "A ny",
      "F C",
      "H ere",
      "I ts",
      "S H",
      "e ff",
      "g en",
      "v o",
      "z z",
      "st ream",
      "Ġd ark",
      "ĠN ight",
      "Ġcom ment",
      "oin ting",
      "Ġdrop s",
      "Ġgod damn",
      "HA HA",
      "ams ung",
      "ĠFI X",
      "ĠGOO D",
      "A mazing",
      "B ig",
      "P re",
      "n ational",
      "u o",
      "x box",
      "Ġw it",
      "Ġl l",
      "ĠW ork",
      "ĠD M",
      "Ġ4 00",
      "Play ing",
      "ent s",
      "ĠV is",
      "ell ing",
      "45 0",
      "Ġcr ime",
      "ey e",
      "Ġche ating",
      "Ġtot al",
      "Ġret urn",
      "ĠEd ge",
      "ĠÂ £",
      ",,,, ,,,,",
      "ĠMon day",
      "Ġsn ip",
      "Ġdem and",
      "G od",
      "c u",
      "f ios",
      "l in",
      "r an",
      "y a",
      "Ġt f",
      "Ġt rouble",
      "Ġb arely",
      "Ġp en",
      "Ġp ot",
      "ĠI I",
      "Ġ1 44",
      "ic ed",
      "ow er",
      "Ġin vol",
      "ĠW OR",
      "ĠF inal",
      ".... ...",
      "20 2",
      "ate ful",
      "Ġpro ject",
      "Ġpro gress",
      "um s",
      "Ġaw ful",
      "ĠNe ver",
      "Ġdrop ped",
      "ĠEx p",
      "Ġask ed",
      "Ġsit uation",
      "Ġpartic ular",
      "Ġmech an",
      "vir on",
      "V P",
      "l ight",
      "Ġs ports",
      "Ġp e",
      "ĠA mazing",
      "Ġst eam",
      "Ġst eal",
      "ĠD ec",
      "ber g",
      "od cast",
      "ĠPlay ing",
      "sh ot",
      "Ġcare er",
      "itch er",
      "Ġdri ving",
      "ĠAM D",
      "Ġitem s",
      "Ġlead er",
      "Ġsus pend",
      "Ġult imate",
      "Ġupgr ade",
      "ĠNove mber",
      "D ear",
      "R Y",
      "d ate",
      "e w",
      "g n",
      "i ence",
      "o om",
      "t witch",
      "Ġt ick",
      "at ors",
      "Ġs leep",
      "Ġw ife",
      "ĠT oo",
      "Ġe tc",
      "Ġre qu",
      "ĠS witch",
      "ec ial",
      "ra b",
      "ra ud",
      "il t",
      "Ġwe b",
      "ick s",
      "Ġmiss ion",
      "Ġreason s",
      "TH E",
      "Ġreg ard",
      "mb ers",
      "Ġlow er",
      "eeeeeeee eeeeeeee",
      "viron ment",
      "B ro",
      "P eople",
      "b it",
      "h an",
      "Ġt emp",
      "as ks",
      "ĠT ech",
      "Ġe vil",
      "ĠA cc",
      "ĠW ild",
      "ĠF ollow",
      "ill iant",
      "Ġ20 16",
      "if ied",
      "Ġevery where",
      "EA Help",
      "grou nd",
      "able s",
      "Ġke pt",
      "Ġmiss ed",
      "Ġpost s",
      "Ġend ing",
      "Ġmo dern",
      "Ġrem ind",
      "Ġfre aking",
      "???????????????? ????????????????",
      "ĠEn joy",
      "Ġtit le",
      "Ġcertain ly",
      "ĠRedee ming",
      "N E",
      "T X",
      "r ay",
      "Ġ LeagueOfLegends",
      "ut ter",
      "Ġg rand",
      "Ġd eep",
      "ĠR econ",
      "ĠH ard",
      "il ities",
      "ĠU N",
      "ab s",
      "Ġexp l",
      "Ġpay ing",
      "Ġgr ateful",
      "IG H",
      "ĠChin a",
      "ssss ssss",
      "Ġword s",
      "Rockstar Games",
      "rey arch",
      "Ġansw er",
      "J E",
      "S O",
      "T ER",
      "W ard",
      "a o",
      "Ġs erious",
      "ou nds",
      "Ġb ar",
      "Ġf ive",
      "Ġh on",
      "Ġg lobal",
      "ed u",
      "Ġd anger",
      "oo f",
      "Ġn on",
      "ĠS E",
      "ĠS tu",
      "ĠA B",
      "ĠD ra",
      "Ġme t",
      "ra ge",
      "ĠL it",
      "Ġsp ace",
      "Ġmatch es",
      "no v",
      "au ght",
      "Ġaud io",
      "Ġthous ands",
      "S e",
      "d om",
      "y out",
      "in ning",
      "Ġa bo",
      "Ġb ill",
      "Ġm at",
      "os ing",
      "ĠW on",
      "ĠW AR",
      "Ġme mor",
      "im b",
      "Ġmiss ions",
      "pr il",
      "Ġ) .",
      "Ġind ustry",
      "ug gest",
      "Ġeff ort",
      "Ġimpress ed",
      "oooooooooooooooooooooooooooooooo oooooooooooooooooooooooooooooooo",
      "Ġlaws uit",
      "ÐµÐµ ÐµÐµ",
      "GEGE GEGE",
      ") ..",
      "/ âĢ¦",
      "A re",
      "I B",
      "K ING",
      "U P",
      "v in",
      "Ġ ...",
      "Ġb ag",
      "Ġm ine",
      "ar n",
      "Ġl ack",
      "Ġl oss",
      "Ġl oot",
      "ĠS er",
      "et ic",
      "ĠB usiness",
      "ĠF ree",
      "ĠM W",
      "Ġne gative",
      "ĠE X",
      "ĠE l",
      "Ġare a",
      "Ġde fe",
      "Ġde leted",
      "Ġexc ellent",
      "Ġsp am",
      "Ġdec ent",
      "Ġshow ed",
      "Ġbl ow",
      "amp le",
      "ib ility",
      "Ġz omb",
      "Ġchal lenge",
      "Ġcred it",
      "T O",
      "r act",
      "it or",
      "Ġb and",
      "Ġb illion",
      "Ġb ots",
      "Ġp ure",
      "Ġh ost",
      "ar c",
      "ĠI D",
      "ant ine",
      "ĠT R",
      "ĠR o",
      "ĠR ec",
      "ĠF en",
      "ĠF all",
      "ĠF IN",
      "ill y",
      "Ġsh aring",
      "anc es",
      "ĠO R",
      "ht tp",
      "Ġk new",
      "Ġv ib",
      "Ġpro vid",
      "ĠNe xt",
      "og ue",
      "ĠEvery one",
      "Ġpri v",
      "Ġopport unity",
      "Ġabo ve",
      "- âĢ¦",
      "F X",
      "M G",
      "a ur",
      "f it",
      "g ly",
      "w ow",
      "Ġt iny",
      "me s",
      "Ġc ow",
      "Ġh el",
      "ut ch",
      "Ġd ick",
      "ic ted",
      "ĠB ecause",
      "ĠW as",
      "ĠG G",
      "Ġsh ock",
      "ak istan",
      "iz ing",
      "Ġstream er",
      "ĠSh it",
      "ĠMy TEAM",
      "Ġres et",
      "ĠWH Y",
      "ĠTr ue",
      "Ġatt ack",
      "gggg gggg",
      "Ġremove d",
      "ĠInt el",
      "Ġfoot ball",
      "y es",
      "Ġt v",
      "Ġt alent",
      "Ġth ird",
      "ĠI ns",
      "Ġre co",
      "ĠC ongratulations",
      "ĠB irthday",
      "ĠR anked",
      "ĠH ear",
      "ĠO UT",
      "Ġbec ame",
      "Ġacc ident",
      "Ġpl us",
      "ĠAnd roid",
      "Ġadd ition",
      "Ġhigh er",
      "fr ic",
      "Ġfollow ers",
      "ĠEd ition",
      "ahah ahah",
      "Ġproper ly",
      "ðŁ¤£ ðŁ¤£",
      "finity Ward",
      "! ?",
      "0 2",
      "J NJ",
      "N S",
      "i et",
      "Ġw ater",
      "Ġd irty",
      "ĠP ass",
      "ĠH as",
      "il i",
      "Ġv io",
      "Ġ20 18",
      "Ġch oice",
      "Ġexp ected",
      "Ġsm oo",
      "Ġspe ak",
      "Ġart icles",
      "Ġtell ing",
      "Ġfollow ing",
      "Ġenter tain",
      "Ġdri ver",
      "................................................................ ................................................................",
      "Ġclear ly",
      "Ġob viously",
      "Ġpres ent",
      "ĠMin ecraft",
      "A r",
      "H D",
      "L ooks",
      "M S",
      "a vid",
      "on a",
      "Ġb en",
      "Ġf it",
      "ĠT I",
      "Ġe pisode",
      "ĠS unday",
      "Ġst ories",
      "ĠM et",
      "Ġthat s",
      "Ġplay station",
      "ir ing",
      "anc y",
      "ĠO p",
      "ĠE ur",
      "il ing",
      "OO K",
      "Ġexp ansion",
      "Ġlive s",
      "Ġear lier",
      "Ġrec ent",
      "Ġid k",
      "Ġclass ic",
      "Ġgener ation",
      "Ġchal leng",
      "UAUA UAUA",
      "ĠLow e",
      "Ġdoll ars",
      "fortun ately",
      "C A",
      "a e",
      "g aming",
      "t im",
      "u ing",
      "Ġb oss",
      "Ġf al",
      "Ġp acks",
      "Ġh t",
      "ar ry",
      "Ġin v",
      "ĠT ake",
      "ĠB uy",
      "ĠW or",
      "ĠR http",
      "Ġme mbers",
      "ra zy",
      "Ġus es",
      "82 2",
      "ĠCh ar",
      "Ġstart s",
      "Ġstop s",
      "Ġupd ated",
      "ĠSh adow",
      "Ġbig ger",
      "RO M",
      "Ġdisapp ointing",
      "amer a",
      "Ġboy c",
      "Ġhy pe",
      "xx xx",
      "Ġact iv",
      "Ġeff ect",
      "Ġreve al",
      "ĠRhttp R",
      "H ad",
      "M ay",
      "P lease",
      "o es",
      "Ġw n",
      "Ġp ath",
      "Ġn ba",
      "ac le",
      "ĠS ch",
      "ĠS ur",
      "ĠA L",
      "us ing",
      "Ġj ohnson",
      "Ġ8 00",
      "mp ire",
      "Ġli l",
      "ĠJ uly",
      "Ġup coming",
      "77 7",
      "Ġv irus",
      "Ġhas n",
      "ĠU lt",
      "ire less",
      "Ġ: (",
      "12 3",
      "Ġpr act",
      "69 0",
      "40 2",
      "Ġop er",
      "IT E",
      "Ġresp ond",
      "Ġid iot",
      "ha ps",
      "Ġcompet itive",
      "Ġnorm al",
      "ĠAg ain",
      "A P",
      "A ctivision",
      "F ifa",
      "I CK",
      "I magine",
      "e en",
      "Ġs me",
      "Ġf air",
      "Ġm ach",
      "en ter",
      "âĢ į.",
      "Ġst re",
      "ĠP lus",
      "ĠJ oin",
      "ard ian",
      "Ġdis respect",
      "av i",
      "Ġbr illiant",
      "Ġche at",
      "ph one",
      "wh y",
      "Ġlear ning",
      "Ġchild ren",
      "ĠGold en",
      "Ġleg it",
      "ĠHal o",
      "Ġlobb y",
      ". âĢĿ",
      "U L",
      "h ood",
      "i j",
      "r ing",
      "r op",
      "w ood",
      "Ġs oooo",
      "Ġf ool",
      "Ġc ell",
      "Ġ1 20",
      "osit ion",
      "he st",
      "Ġst aff",
      "ĠB O",
      "ĠB R",
      "ĠW itcher",
      "ĠM O",
      "Ġso lo",
      "Ġr um",
      "ass assin",
      "Ġ- -",
      "Ġgo al",
      "ast y",
      "Ġu gly",
      "42 8",
      "Ġsk ills",
      "Ġend ed",
      "Ġsub sc",
      "Ġluck y",
      "Ġjoin ed",
      "Ġmod el",
      "Ġsurpr ise",
      "Ġlaws uits",
      "Ġsetting s",
      "Ġpat ient",
      "arr ass",
      "irtu al",
      "Ġht ml",
      "M o",
      "M UT",
      "a el",
      "f Duty",
      "in der",
      "re ct",
      "Ġm il",
      "Ġm urder",
      "ĠT W",
      "ĠS ept",
      "ĠB ad",
      "Ġj our",
      "ĠO W",
      "ur l",
      "our s",
      "Ġch ampion",
      "10 2",
      "Ġpl ac",
      "sh are",
      "ĠSh ow",
      "ĠSh ould",
      "oc r",
      "ĠDo es",
      "ĠOr ig",
      "Ġru ined",
      "Ind ia",
      "Ġrema ster",
      "mak ing",
      "Ġoffic ially",
      "E LL",
      "m i",
      "p ect",
      "t est",
      "Ġa head",
      "Ġs uggest",
      "Ġb ed",
      "Ġf ear",
      "Ġf ood",
      "Ġf und",
      "Ġc y",
      "Ġc oll",
      "ut s",
      "Ġd ed",
      "ver ge",
      "Ġre v",
      "ĠW almart",
      "ĠR P",
      "ĠM ake",
      "Ġcom fort",
      "Ġv ar",
      "Ġcl ub",
      "Ġdis cover",
      "85 2",
      "Ġass ist",
      "Ġdes k",
      "Ġother wise",
      "Ġmin s",
      "ĠGame play",
      "Ġcomm er",
      "Ġtra in",
      "Ġopen ing",
      "ĠGO D",
      "AS S",
      "ĠFuck ing",
      "Ġhack ed",
      "Ġimpress ive",
      "Ġmultip le",
      "Ġweap ons",
      "earbox Official",
      ". <",
      "A d",
      "E n",
      "M ore",
      "V IA",
      "h ome",
      "Ð ¹",
      "Ġ es",
      "Ġ vid",
      "Ġc s",
      "ic ation",
      "Ġe st",
      "Ġre views",
      "ĠB RO",
      "ĠF A",
      "ĠF ROM",
      "ĠD est",
      "Ġ10 80",
      "ss ist",
      "Ġ- .",
      "Ġwe ak",
      "art ed",
      "Ġen vironment",
      "89 8",
      "Ġhim self",
      "Ġperson al",
      "Ġhigh ly",
      "Ġcol or",
      "Ġhack ers",
      "Ġatt emp",
      "Ġsurpr ised",
      "OOOOOOOOOOOOOOOO OOOOOOOOOOOOOOOO",
      "Ġpiss ed",
      "Ġvi ol",
      "Ġfur ther",
      "VIA ssist",
      "G et",
      "P er",
      "_ _",
      "Ġt ag",
      "Ġth read",
      "it ions",
      "ĠI M",
      "Ġre pl",
      "ĠA tt",
      "ĠC he",
      "th ough",
      "ĠB eluba",
      "ĠW A",
      "ĠM usic",
      "ue l",
      "Ġr ate"
    ]
  }
}